the 27983
. 25625
is 21506
, 16928
of 14661
in 14505
and 11065
a 5950
was 4743
by 3654
has 3179
which 3162
located 3057
from 2804
are 2396
United 2339
where 2288
leader 2280
States 2108
Airport 1900
it 1823
an 1660
as 1596
to 1524
( 1512
) 1501
County 1440
at 1423
on 1372
New 1371
's 1341
with 1333
runway 1315
University 1244
born 1229
city 1226
he 1155
" 1148
International 1141
for 1092
ethnic 1084
found 1057
country 1053
dish 1039
part 997
its 992
capital 992
Texas 947
language 925
who 872
one 849
also 843
spoken 828
number 822
Alan 809
length 751
English 746
bacon 737
airport 728
name 725
comes 696
region 672
India 663
ingredient 660
above 656
ground 651
metres 639
ingredients 639
group 639
Apollo 637
level 631
sea 629
pilot 602
published 598
main 596
Americans 588
served 584
be 574
Aarhus 568
operated 557
NASA 557
can 555
written 545
American 543
member 538
City 530
sauce 524
: 520
serves 512
established 506
Indonesia 506
location 505
crew 498
members 487
1634 484
York 482
FC 480
A 479
di 474
Jersey 473
Institute 471
Spain 469
groups 456
club 455
Acharya 455
Denmark 453
affiliated 448
created 446
Austin 441
The 433
Monument 429
that 421
people 415
designed 408
Italy 404
School 396
California 394
character 394
book 387
John 386
Technology 382
William 376
there 374
leaders 373
Infantry 369
Hall 367
Aldrin 366
made 362
Mendrisio 360
graduated 359
US 359
originates 356
manager 355
known 352
12 350
called 350
Akita 343
played 342
Madrid 342
they 341
Shepard 341
died 339
Anders 339
Washington 338
or 337
retired 334
Elliot 331
Buzz 327
See 327
1 326
Singapore 323
Bean 321
dessert 321
plays 320
1963 320
completed 315
National 311
test 306
have 302
Air 299
whose 298
11 298
Pennsylvania 297
Public 293
architect 291
home 291
Athens 290
Malaysia 289
comic 288
students 285
Sri 285
Britain 284
Great 283
Philippines 283
Adams 282
' 278
Business 277
AFC 277
academic 276
11th 275
sandwich 274
Pakistan 273
led 271
Al 271
Long 271
beef 271
Regional 270
their 270
play 266
President 262
area 259
contains 258
Calcio 256
state 255
food 253
national 252
Accademia 251
lead 251
Mississippi 250
Ram 250
Force 250
Association 248
Sciences 248
Switzerland 246
Baku 246
July 245
Bangalore 244
Ajax 243
ISBN 243
Asian 240
floors 238
Appleton 238
Architettura 235
France 234
2000 234
currency 233
Greece 233
Road 232
Atlantic 231
Akron 229
Turkey 229
AC 228
Addis 227
Wisconsin 227
staff 226
both 226
variation 226
ISSN 226
Ababa 226
Flint 225
Adolfo 223
Eric 223
A.S. 223
Acta 222
Hampshire 221
Obama 221
British 220
Barack 219
season 219
pudding 218
includes 218
this 217
250 216
Visvesvaraya 216
Bavarian 216
Lanka 216
Hong 216
Kong 215
U.S. 215
Technological 215
Ridge 214
Crisis 214
Bionico 213
Street 212
Social 212
square 211
Asad 211
Mexico 211
popular 211
Rebellion 211
Township 211
Ayam 210
Conference 209
Blackpool 209
Romania 209
paisa 208
– 208
Antwerp 206
Authority 205
Alaska 203
Serie 202
chicken 202
St. 201
Rome 201
penyet 200
South 200
were 200
Asilomar 199
long 199
Bandeja 198
fighter 198
Maryland 198
Java 197
fried 197
Karnataka 195
Mary 195
Ohio 194
Alpena 194
Abilene 194
Native 194
Dallas 194
Baked 193
African 193
order 192
Bakewell 192
North 192
1st 191
A.C. 190
Explosion 189
Kingdom 189
Derbyshire 188
F.C. 188
Turkish 188
London 187
Louis 187
now 186
Azerbaijan 186
Alcatraz 186
Agra 185
England 185
Spanish 184
Versus 184
8 183
Sportiva 182
full 182
Pietro 182
meters 182
Big 180
College 179
abbreviated 178
de 178
Andrews 178
pedas 178
Evil 176
Asam 175
2014 175
journal 175
teow 175
preceded 174
owned 174
Press 174
20 174
white 174
Ajoblanco 172
Science 172
Chinese 171
Librarians 169
European 169
Alderney 169
1932 168
kway 168
league 168
Bella 168
vegetables 168
Row 168
Chicago 167
Birmingham 167
Wheeler 167
champions 167
pages 165
Iqbal 165
Colmore 165
Allama 165
OCLC 165
Way 164
Batchoy 164
been 164
Character 163
used 163
Ashgabat 162
Loyal 159
Ice 158
Italian 158
aircraft 158
Avenue 157
Adare 156
Johnson 156
Mars 156
Pena 156
Dancer 155
B 155
Wizard 155
Virginia 155
Summit 154
Hotel 154
D.C. 153
Zealand 153
negre 153
selected 153
Delaware 151
operating 151
Wasp 151
Binignit 150
his 150
Cleveland 149
first 148
Dr. 148
Glen 148
Angola 147
monument 147
AIP 147
Amatriciana 147
UK 147
Levy 147
II 147
Asser 147
Bananaman 146
Grey 146
LCCN 146
based 146
Fortress 146
St 144
Copenhagen 144
Roma 144
president 143
Art 143
Bacon 142
Province 142
Verona 141
followed 141
Bakso 141
traditional 141
print 140
organisation 140
Amsterdam 139
Japan 139
Museum 138
103 138
Suárez 137
1962 137
23 136
Gubbio 135
largest 135
Sky 134
Arapiraquense 134
Barajas 134
Ardmore 133
600 133
San 132
Iraq 132
belongs 132
Miller 132
oil 132
Department 132
Ampara 131
300 131
Marriott 131
Poaceae 130
Indian 130
Indiana 129
Frank 129
Baths 129
company 128
Greenville 128
AIDS 128
1918 128
Lake 128
Romance 128
include 128
sweet 128
Decembrie 128
Ireland 127
Service 127
Michigan 126
Severed 125
Kerala 125
Historic 124
discipline 124
Manor 124
author 124
Journal 123
1910 123
founded 123
& 123
Medal 123
but 123
rice 122
Engineering 122
property 122
Johann 122
Illinois 122
AWH 122
Glastonbury 122
Quarterly 121
Fylde 121
Livorno 121
Efxeinoupolis 121
14th 121
Airbase 120
Council 120
1996 120
BLT 120
Administrative 120
Dimitra 119
available 119
Volunteer 119
200 119
Grounds 119
Bhajji 118
Assault 118
Lumezzane 118
Dales 117
LaSalle 117
hardcover 117
Advances 116
BBC 116
Grasso 116
tenant 116
1957 115
Football 115
DC 115
Adisham 115
House 114
Grantville 114
October 114
Frederick 113
named 113
under 113
Club 112
Main 112
NWC 112
; 112
Addiction 112
Felipe 112
Flemish 112
Square 112
DeMarce 112
Hessarghatta 111
code 111
Schneider-Ammann 111
3Arena 111
VI 111
manages 111
Radhakrishnan 110
floor 110
560090 110
ni 110
football 110
Soldevanahalli 110
languages 110
Barny 110
cream 109
Amdavad 109
Gufa 109
Chievo 109
Charlie 108
Parker 108
banana 108
Register 107
Indonesian 107
Afonso 107
space 107
family 107
Sarvapalli 107
Places 106
Madin 106
A.E 106
airbase 105
1927 105
Mathematics 105
Civil 104
Uttar 104
Andalusia 104
Martyrs 104
Pradesh 104
Aviation 103
1955 103
backup 103
Alba 103
Federal 102
Math 102
Lahore 102
Robert 102
milk 101
Punjab 101
added 101
Belgium 101
title 100
red 100
David 100
Baymax 100
style 100
Malaysian 100
Diagonal 99
dedicated 99
within 99
Suarez 99
Stuart 99
official 98
Gettysburg 98
3rd 98
T 98
Turkmenistan 98
Cornell 98
Egg 97
Ethiopia 97
Ahmet 97
batagor 97
B. 97
January 97
managed 97
Agremiação 97
Malay 96
current 96
Harbor 96
AZAL 96
minutes 96
6 96
became 96
Joe 95
garlic 95
Biden 95
awarded 95
Veil 94
League 94
Memorial 94
Adirondack 94
starred 94
currently 93
speak 93
Cumberland 93
type 93
pork 93
1928 93
cuisine 92
Philippine 92
Associazione 92
building 92
e 92
A.F.C. 92
Dublin 92
cakes 92
Technical 92
Hero 92
flowering 92
attended 92
Prefecture 92
Gujarat 91
ACM 91
ENAIRE 91
potato 91
contributing 90
team 90
Cesena 90
uses 90
USA 90
Prime 89
Aenir 89
total 89
parent 89
Fenchurch 89
High 89
Minister 88
Elizabeth 88
Brazil 88
23rd 88
situated 88
Alcobendas 88
Eastern 88
Arros 88
surface 88
Battlefield 88
Battle 87
French 87
UT 87
Hospital 87
olive 87
C 87
elevation 86
inhabitants 86
Catalonia 86
Assembly 86
Antioquia 86
many 85
Borman 85
Manhattan 85
Lars 85
sausage 85
Monocacy 85
Widodo 85
categorised 85
Africa 84
Navy 84
Ataturk 84
Joko 84
Tirstrup 84
737 84
Izmir 83
700 83
novel 83
dean 83
Rasmussen 83
Williams 82
AEK 82
Distinguished 82
AZ 82
100 82
- 82
Sumatra 82
Peter 82
Mario 82
headquarters 81
Polonica 81
along 81
Botta 81
Magdeburg 81
Jens 80
Paracuellos 80
coconut 80
Palaeontologica 80
III 80
Jarama 80
Paul 79
Lockheed 79
identifier 79
Saranac 79
southeast 79
constructed 79
inaugurated 79
Kalla 78
Siomay 78
Soho 78
Jusuf 78
1930 78
Lippincott 78
1969 78
1923 78
Morgan 78
State 78
ICAO 77
1933 77
Pinhais 77
Mumbai 77
Wilkins 77
two 77
Stadium 77
Chancellor 77
Julia 76
Arrabbiata 76
publisher 76
Spaniards 76
alternative 76
March 76
Mattarella 76
van 76
Susana 75
Reyes 75
Madrid-Barajas 75
abbreviation 75
Brasileiro 75
Plack 75
Powys 75
Campeonato 75
dos 75
Isidro 75
sour 75
Sergio 75
Scott 75
AFIT 75
Hilmi 74
Arabic 74
operates 74
went 74
14 74
Man 74
los 74
Ankara 74
being 73
tart 73
February 73
Alkmaar 73
population 73
mission 73
plants 73
Valls 72
course 72
system 72
Dead 72
Kuttikkattoor 72
meat 72
school 72
Academy 72
Arem-arem 72
Davutoglu 72
Parliament 72
feet 72
Party 72
competed 71
Brussels 71
Republic 71
lemon 71
cake 71
Ranil 70
Port 70
Modi 70
15 70
spent 70
arem 70
Shumai 69
Larcher 69
Wickremesinghe 69
almonds 69
Narendra 69
north 69
Michele 69
Bengo 69
almond 69
Stadio 68
transport 68
municipality 68
Brom 68
well 68
den 68
Atatürk 68
Marcolini 68
Thakur 68
nationwide 67
Vincent-St 67
memorial 67
Community 67
avocado 67
same 67
noodles 67
binignit 67
Cowper 67
Schiphol 67
Metapan 66
Ottoman 66
Ryan 66
black 66
peanut 66
Airlines 66
April 66
Hopkins 66
Carrol 66
Grove 65
live 65
Pacific 65
Castle 65
November 65
Javanese 65
Tony 64
Arròs 64
2014-15 64
Garth 64
Nix 64
Burbank 64
2009 64
CODEN 64
Prabhukumar 64
East 63
architectural 63
Bolt 63
Ahmedabad 63
campus 63
west 62
Leipzig 62
bread 62
War 62
Bill 62
attached 62
broadcast 62
anthem 62
film 62
sequel 62
Canonica 62
come 62
Haputale 61
chosen 61
jam 61
Gazette 61
eaten 61
1983 61
reference 61
34 61
originated 61
bronze 61
Klaus 60
creator 60
Prokopis 60
Paris 60
stars 60
China 60
higher 60
Juventus 60
Belgaum 60
Mason 60
Bucharest 60
3 59
Halimah 59
September 59
AC-130 59
Alfred 59
Viking 59
m 59
amateurs 59
Palaeontol 59
beans 59
Region 59
body 59
1966 59
White 59
Tan 58
Aureoles 58
joined 58
Yacob 58
Secret 58
Sandesh 58
than 58
won 58
Contributing 58
university 58
key 58
Colombian 58
before 58
M.A. 58
Conejo 58
lies 58
Silvano 58
killed 58
cooked 58
leads 58
soldiers 58
PFK 58
category 58
postgraduate 58
Härtel 57
poaceae 57
Jose 57
Isabelle 57
Alexis 57
Georgia 57
butter 57
granola 57
eggs 57
granite 57
G. 57
marble 57
Asher 57
Harrietstown 57
1862 57
Sao 56
3500 56
Tsipras 56
De 56
Mahajan 56
Boeing 56
built 56
Globemaster 56
June 56
A.T. 56
Nikos 56
Richardson 56
student 56
Universities 55
Sumitra 55
Reddy 55
Solanales 55
C-17 55
editor 55
27 55
2001 55
Duncan 55
district 55
influenced 55
Scripture 55
17000 55
Thomas 54
address 54
governing 54
Systems 54
Voutsis 54
Artur 54
Paisa 54
Gazettes 54
community 54
Campus 54
government 54
year 54
governed 54
division 54
Transactions 54
1959 54
Guner 54
18 54
Rasizade 54
Lokke 54
Butuner 54
Huseyin 54
Curitiba 54
wrote 54
leaf 54
g 54
15th 54
210 53
M.S. 53
MIT 53
Information 53
Série 53
Blockbuster 53
Rouleau 53
Chute 53
condensed 53
elevated 52
Church 52
Massimo 52
A. 52
county 52
Rolando 52
variations 52
Iohannis 52
Infraero 52
rupee 52
Pavlopoulos 52
Franklin 52
Drago 51
plant 51
Stern 51
cheese 51
Jayawardenepura 51
Commerce 51
raisins 51
Premier 51
sponge 51
Universitas 51
Luanda 51
water 51
Jorge 51
Jones 50
previous 50
George 50
Valencian 50
Johns 50
including 50
previously 50
northeast 50
A.D. 50
speaking 50
tenants 50
Superleague 50
Maran 50
Italians 50
Manuel 50
Iulia 49
Heinlein 49
Swiss 49
nickname 49
sambal 49
southwest 49
Park 49
kilometres 49
began 49
der 49
significant 49
Peninsula 49
sago 49
Madison 49
Bundelkhand 49
1907 49
Germans 49
Kotte 49
Pol 49
tomatoes 49
Francisco 48
17th 48
religion 48
ACF 48
2015 48
Placid 48
Fallujah 48
J. 48
U.S 48
All 48
Central 48
Education 48
sarnie 48
organization 48
per 48
flour 48
1500 48
Sands 47
MA 47
tomato 47
owner 47
butty 47
muffin 47
1974 47
organs 47
Above 47
Awadh 47
Weymouth 47
fought 47
shrimp 47
barm 47
Euro 46
legislature 46
USAF 46
sanger 46
Istanbul 46
smashed 46
Town 46
footballer 46
piece 46
town 46
28 46
Dan 46
given 46
Gold 46
Fiorentina 45
cob 45
Gerard 45
worked 45
aired 45
Greek 45
Wilson 45
celery 45
G 45
among 45
rasher 45
FK 45
buildings 45
1987 45
45 45
status 45
18L/36R 45
Mathematica 45
grounds 45
'n 44
Michael 44
director 44
sesame 44
involved 44
construction 44
1976 44
demonym 44
bakewell 44
Africans 44
Cyril 44
south 44
320 44
Center 44
Hungarica 44
mater 44
later 44
159 43
Charles 43
ketchup 43
Ramaphosa 43
Wolf 43
P. 43
had 43
1931 43
Stoger 43
Seagle 43
T. 43
northwest 43
Visayas 43
architecture 43
Cameron 43
Ícolo 43
S 43
countries 43
once 43
hot 42
originally 42
Patrick 42
squeezed 42
Cullins 42
Base 42
Auron 42
Jakarta 42
27th 42
cold 42
Pain 42
Mendoza 42
Worden 42
belly 42
alma 42
Entertainment 42
B.S. 42
1904 42
610 42
asphalt 42
Nation 42
Tudor 41
Zamboangans 41
Kochi 41
chorizo 41
İzmir 41
Christian 41
Ganges 41
VIAG 41
Kansas 41
Location 41
hired 41
AS 41
Jalisco 41
Cuyahoga 41
Grand 41
Panucci 41
Black 41
McLoughlin 41
Jacob 41
ice 41
Dave 41
Standard 41
German 41
Metapán 41
In 41
Army 41
local 41
Humberto 40
1913 40
Asherton 40
after 40
commander 40
lira 40
Taylor 40
density 40
historic 40
warm 40
Sc.D 40
Monocotyledon 40
Identifier 40
Balder 40
Albany 40
Sehitleri 40
1986 40
Aniti 40
A/S 40
gram 40
falls 40
Edwin 40
Ticino 40
brown 40
Tim 40
Anderson 39
Korean 39
fullname 39
Tennis 39
Labour 39
Guadalajara 39
16000 39
Toekomst 39
10000 39
Harvard 39
Polish 39
108 39
Poales 39
Margrethe 39
Sportpark 39
Roger 39
native 39
Olympic 39
Colombia 38
August 38
Seminar 38
Sci 38
Mathematischen 38
received 38
Essex 38
Anbar 38
Chief 38
sandwiches 38
Irish 38
aus 38
Terrace 38
Zuma 38
Georges 38
dem 38
fish 38
Admin 38
3180 38
546 38
Commelinids 38
Abhandlungen 38
Cornish 38
Hamburg 38
18th 37
genus 37
Enrique 37
variant 37
Nieto 37
Columbian 37
compete 37
then 37
Sea 37
Dean 37
minced 37
Naik 37
Roberts 37
Turk 37
Sebastian 37
Arabs 37
Buffalo 37
Arabian 37
Solent 37
Sebastián 37
guanciale 36
211 36
Maiden 36
Anglia 36
Cape 36
more 36
Challinor 36
taro 36
Christmas 36
away 36
east 36
explosion 36
Ernie 36
egg 36
Government 36
Lufthavn 36
headquartered 36
Massachusetts 36
Stanford 36
Boris 36
Live 36
Revival 36
25 36
hails 36
Igorot 36
December 36
containing 36
Ealdorman 36
Lazio 36
1-4165-2060-0 36
Agremiacao 36
class 36
Vila 36
Clube 36
meringue 35
60040714 35
date 35
911 35
10L/28R 35
oyster 35
Aurakles 35
another 35
serving 35
Fernando 35
Limerick 35
Steve 35
Am 35
battles 35
Arena 35
2008 35
Hollande 35
Wall 35
baked 35
potatoes 35
Auburn 35
Trans 35
plantain 35
included 35
Inf 35
Futebol 35
Nova 35
Jr 35
Grenada 35
Ellington 35
Invasion 34
Steven 34
M 34
paperback 34
hogao 34
Diaz 34
70634 34
attack 34
80002709 34
arepa 34
Seminary 34
Desalegn 34
Stöger 34
16,000 34
doctoral 34
Teshome 34
El 34
names 34
Mahe 34
Tinkham 34
compressed 34
Koln 34
passed 34
Pallesen 34
B.M. 34
shredded 34
Ithaca 33
chopped 33
fruit 33
Urich 33
operate 33
Atlanta 33
Salvador 33
Psalm 33
Oddie 33
S.p.A. 33
James 33
HIV/AIDS 33
Hailemariam 33
regional 32
series 32
commonly 32
produced 32
Al-Taqaddum 32
postcode 32
10R/28L 32
edited 32
SV 32
SK 32
Boston 32
280 32
while 32
HIV 32
publishes 32
km 32
ajoblanco 32
978-1-4165-4253-7 32
Anaheim 32
Maple 32
tapioca 32
Albuquerque 32
Arts 32
player 31
euro 31
Qiu 31
Freedom 31
medal 31
count 31
Shirley 31
confectionery 31
cost 31
Marv 31
Mexican 31
100305 31
Panama 31
Award 31
advisor 31
Syst 31
Amharic 31
metropolitan 31
Beef 31
Penyet 31
20th 31
Dane 31
Wiley-Blackwell 31
da 31
Mayor 31
Walt 31
place 31
severed 31
Whitman 31
Dynamics 31
Eagle 30
Falcon 30
Texans 30
Riverside 30
Baltic 30
Luciano 30
Banyumasan 30
Antonio 30
up 30
Universität 30
Kluwer 30
ChievoVerona 30
Coaracy 30
Telangana 30
Galileo 30
run 30
department 30
neighbouring 30
Mata 30
C. 30
Austria 30
Graeme 30
Fighting 30
-3.3528 30
Wien 30
14L/32R 30
General 30
Beach 30
Garden 30
Wolters 30
performed 30
60 30
Affair 30
other 30
Populous 29
dollars 29
Management 29
Mols 29
million 29
Spalletti 29
F-16 29
chilli 29
become 29
AGR 29
Astronaut 29
batchoy 29
air 29
patacones 29
typical 29
Løkke 29
comics 29
Parana 29
invasion 29
93645978 29
Ajo 29
Wolfman 29
kilometre 29
rock 29
17 29
citizen 29
Lega 29
deploy 29
contain 29
origin 29
fillings 29
Fonseca 29
88 29
Kesel 29
Karl 28
Laura 28
Rahm 28
you 28
Xiaolong 28
carriers 28
Lauraceae 28
Filipino 28
Brooke-Taylor 28
497.0 28
Latin 28
Douglas 28
28th 28
Ilocano 28
started 28
ink 28
party 28
Colon 28
Desmond 28
nationality 28
Estadio 28
categorized 28
find 28
Horrigan 28
Emanuel 28
specific 28
Cakes 28
Boldrini 28
Moro 28
degree 28
Land 28
will 28
morcilla 28
Enduring 27
Apulensis 27
30843.8 27
using 27
Mechelen 27
Tejano 27
S. 27
Federation 27
competing 27
Stockport 27
chicharon 27
Richard 27
motto 27
ayam 27
87000823 27
Building 27
tennis 27
Nurturing 27
Ben 27
Aktieselskab 27
! 27
McDonnell 27
blanco 27
448 27
Meride 27
creators 27
1985 27
1981 27
Excellence 27
Property 27
Kenny 27
KV 27
Alma 27
politician 26
La 26
L. 26
hub 26
Union 26
Adsit 26
soy 26
Enda 26
gula 26
Amsterdamsche 26
awards 26
former 26
dark 26
lengkuas 26
Michel 26
person 26
Office 26
F-15 26
Paulo 26
Gene 26
Jan 26
Faber 26
Bright 26
vermicelli 26
Operation 26
Fighter 26
some 26
Carrarese 26
08/26 26
89646863 26
Icolo 26
07 26
D. 26
Poyet 26
soya 26
19238 26
Lokomotive 26
represented 26
Berliner 26
D 26
39371 26
dried 26
Sousa 26
3XN 26
Arion 26
Oregon 26
Chesterfield 26
Gus 26
chili 25
s@@ 25
birth 25
sliced 25
System 25
Lankan 25
Physics 25
973 25
Neustadt 25
Carroll 25
Claude 25
Jackson 25
IATA 25
fruits 25
bionico 25
SC 25
AK 25
cuttlefish 25
Davutoğlu 25
nearest 25
Jr. 25
army 25
U.S.A. 25
03 25
height 25
Into 25
ia 25
form 25
Torino 25
institute 25
Australia 25
cubanelle 25
Sharif 25
2776.0 25
Colan 25
Chinatown 25
Melaka 25
Putrajaya 25
like 25
Aarhusiensis 25
Babelsberg 25
architects 25
Vicenza 25
3800.0 25
noodle 25
authored 25
cephalopod 25
Wiener 25
Schipol 25
Hungar 25
1174 24
Asterix 24
STV 24
Perth 24
bhajji 24
freshly 24
Fox 24
2777.0 24
shallots 24
Mater 24
Vincent 24
cottage 24
Kuala 24
0-670-03380-4 24
Rovers 24
57059226 24
Buscema 24
Youth 24
512 24
11/29 24
kailan 24
although 24
1980 24
Bartolone 24
broth 24
districts 24
0-439-92550-9 24
Lumpur 24
all 24
program 24
salted 24
short 24
0-439-17684-0 24
latin 24
57392246 24
Hardcover 24
Gregory 24
Gardner 23
Mamnoon 23
Olympiacos 23
Bari 23
Antioch 23
Taqaddum 23
Airports 23
Rodriguez 23
03L/21R 23
Carles 23
river 23
District 23
Diane 23
292 23
1998 23
latter 23
1909 23
Dick 23
2014-2015 23
Rutland 23
grant 23
Arms 23
Hartel 23
owns 23
Menasha 23
Knight 23
Alabama 23
HOK 23
Gérard 23
Dr 23
Lambien 23
Sandwich 23
preserves 23
Rosaceae 23
Wiley 23
Sachsen 23
Brooklyn 23
squid 23
Hussain 23
Columbia 23
Crafts 23
1908 23
Tom 23
0002-9327 23
Manual 23
69618 23
writer 23
Pro 23
0-439-17685-9 23
APGPAC 22
José 22
23900 22
Augustus 22
Fenves 22
0001-8392 22
palm 22
83646315 22
Abh 22
Semin 22
condiments 22
loin 22
Berlin 22
n@@ 22
Southeast 22
76798317 22
Tamil 22
1911 22
Lancashire 22
chairman 22
TV 22
Hambg 22
Mondelez 22
São 22
sugar 22
deceased 22
tender 22
about 22
167.94 22
erected 22
Univ 22
50 22
Carpi 22
1820 22
Bachelor 22
chinese 22
Pugin 22
use 22
Australian 22
Bhaji 22
Duane 22
here 21
Movement 21
Lyle 21
Conservative 21
Daniel 21
sometimes 21
Penguin 21
Steyr 21
18R/36L 21
Q 21
Ximo 21
ing 21
U 21
award 21
work 21
Sheldon 21
Fuad 21
Renzi 21
Moldoff 21
these 21
base 21
Random 21
Broadcasting 21
Publications 21
Puig 21
Airman 21
Los 21
Haider 21
101 21
Paleobiology 21
Alpharetta 21
Valer 21
SAGE 21
Admira 21
playing 21
Francois 21
Dale 21
Wacker 21
1988 21
Köln 21
Breaz 21
Amateurs 21
4150 21
E. 21
Matteo 21
cookie 21
5300 21
S.r.l. 21
Ukrop 21
Houston 21
Angeles 20
considered 20
Bolatinsky 20
Hüseyin 20
Jong 20
aboard 20
Cohn 20
Adv. 20
Cook 20
46451790 20
codes 20
shumai 20
Ujang 20
Abu 20
bajji 20
13/31 20
Lee 20
Vietnamese 20
0567-7920 20
Kirby 20
ed 20
Zahar 20
Arnhem 20
alongside 20
Nawaz 20
birthplace 20
bandeja 20
Vala 20
Helmut 20
inhabited 20
Jack 20
Bütüner 20
p@@ 20
b@@ 20
seat 20
pastry 20
Faroese 20
varied 20
Gary 20
Paz 20
Dillin 20
over 20
serve 20
Vitesse 20
Güner 20
Reith 20
Larry 20
i@@ 20
ranks 20
0-7156-3648-0 19
Abdul 19
Vajubhai 19
Qarabag 19
often 19
following 19
Shilling 19
Halim 19
.@@ 19
having 19
507 19
Æthelwald 19
2011 19
Kway 19
employees 19
Baduy 19
Batagor 19
commanded 19
cookies 19
lives 19
Alexandria 19
desserts 19
ORAA 19
Taro 19
stories 19
jurisdiction 19
Carmine 19
Rosids 19
rupiah 19
Olimpico 19
Garrett 19
Don 19
Masum 19
Jill 19
Malatu 19
rector 19
Kedah 19
natives 19
own 19
shortcrust 19
Iloilo 19
Jahn 19
4.8 19
fat 19
Boer 19
140000.0 19
time 18
mascot 18
s 18
3000 18
Real 18
Puigdemont 18
Sanderson 18
Sons 18
last 18
Of 18
Leinster 18
Kempe 18
4000 18
Inkpot 18
1907-07-11 18
D.C 18
Filipinos 18
Hook 18
war 18
Malays 18
Alvinegro 18
es 18
size 18
A.S 18
sport 18
Mark 18
Uab 18
Baron 18
picked 18
Mishkin 18
Provincial 18
Helicopter 18
Milan 18
388 18
Duursema 18
Infantino 18
founder 18
Potter 18
Gowda 18
peppers 18
llocano 18
0-374-26131-8 18
S.S. 18
3800 18
2215.0 18
Blvd. 18
S.S.D. 18
him 18
Roy 18
publication 18
Greenlandic 18
competes 17
Jinnah 17
Puerto 17
Greeks 17
Indians 17
1700 17
Francis 17
Efxeinoupoli 17
such 17
Quay 17
SVE 17
Brandon 17
al 17
graduate 17
Guardian 17
3360.12 17
Attica 17
Pickard 17
Counties 17
regions 17
Democratic 17
Chelsea 17
mayor 17
Q. 17
Afonsa 17
Picchi 17
Bury 17
ethic 17
concerts 17
'em 17
asam 17
Chilton 17
Simonson 17
3992.88 17
Combat 17
15/33 17
magistrate 17
Denzil 17
appeared 17
near 17
Andrew 17
Kolin 17
HAL 17
Entella 17
5000 17
09L/27R 17
Philippe 17
destination 17
Bay 17
Armando 17
y 17
pepper 17
condiment 17
tourist 17
Netherland 17
1980-04-23 17
classed 17
1964 17
Virtus 17
Craftsman 17
events 17
Danish 17
McKenzie 17
Kupperberg 17
Inter 17
Libya 17
political 17
Light 17
3310.0 17
second 16
service 16
Goscinny 16
sq 16
Slay 16
Feinstein 16
Herald 16
Lira 16
gold 16
Brasilia 16
Stan 16
78771100 16
Len 16
battle 16
111484 16
Genoa 16
Patel 16
governs 16
World 16
Giles 16
476 16
third 16
originating 16
Drogheda 16
e@@ 16
Pirate 16
100305.0 16
protein 16
either 16
Trade 16
Society 16
Wein 16
8805735 16
Munster 16
Director 16
Four 16
F.C 16
Williamsburg 16
pakora 16
Anandiben 16
Municipal 16
West 16
measures 16
f@@ 16
associated 16
1732-2421 16
1.8 16
Mulatu 15
types 15
2nd 15
05L/23R 15
AMAHE9 15
Gordon 15
printed 15
h@@ 15
0965-2140 15
Brazilians 15
via 15
states 15
Annie 15
l@@ 15
graduating 15
bird 15
Vance 15
high 15
Bungalows 15
1588-2632 15
Astérix 15
Atalanta 15
rutaceae 15
Ballistic 15
Place 15
Cyrus 15
shown 15
Marsden 15
Colwyn 15
române 15
Deportiva 15
similar 15
Representatives 15
Development 15
force 15
honey 15
almaMater 15
Dunne 15
offered 15
ribbon 15
Manuzzi 15
0269-9370 15
Disney 15
Studios 15
Dino 15
itself 15
back 15
1-56947-301-3 15
Deșteaptă-te 15
tenanted 15
Print 15
otherwise 15
d@@ 15
Romanesque 15
broadcasted 15
52 15
Chris 15
Odinson 15
Cornwall 15
Acehnese 15
Dianne 15
1473-5571 15
Rosales 15
inhabit 15
Martyr 14
starring 14
ad@@ 14
17L/35R 14
1558-2868 14
sterling 14
88002539 14
Javenese 14
Rican 14
dishes 14
should 14
Number 14
carbohydrates 14
Examiner 14
Motion 14
S@@ 14
Zaragoza 14
4/22 14
Arbor 14
between 14
Marc 14
Ayaz 14
Lam 14
Patten 14
Country 14
strong 14
T.S. 14
since 14
Kimberly 14
Computing 14
Eugene 14
America 14
Published 14
Madrid-Barejas 14
Ann 14
978-0-15-204770-2 14
soup 14
K-W 14
different 14
affiliate 14
Robur 14
Hearst 14
22 14
King 14
Huiberts 14
Rodríguez 14
Max 14
holds 14
doctorate 14
Arem 14
A@@ 14
g@@ 14
too 14
Netherlands 14
Ahri'ahn 14
Tranmere 14
Karnatka 14
offers 14
connections 14
47290 14
Sardar 14
50000 14
Geering 14
Carrie 14
Siena 14
1969-09-01 14
P 14
84 14
know 14
17023 14
below 14
1046-8188 13
1929 13
managing 13
Aktieselkab 13
.The 13
postal 13
NJ 13
Paleontology 13
45644811 13
operation 13
respectively 13
compliment 13
27250 13
provided 13
Ambassador 13
A.M. 13
8.0 13
ScD 13
4000.0 13
Queen 13
aka 13
1995 13
bombing 13
Georgian 13
RB 13
Bentegodi 13
Pictures 13
t 13
Brown 13
Sc 13
People 13
518.0 13
authors 13
studied 13
I@@ 13
tofu 13
Nov 13
i 13
le@@ 13
Hercules 13
m@@ 13
covers 13
Arrow 13
frangipane 13
Minicipal 13
Collin 13
Graafschap 13
Norway 13
J.V. 13
r@@ 13
finished 13
Gale 13
42 13
Arlington 13
Anderlecht 13
1961 13
conference 13
32024459 13
head 13
François 13
al-Abadi 13
3078.48 13
sports 13
Sadiq 13
N.V. 13
Brewer 13
Rochdale 13
2900.0 13
hotel 13
on@@ 13
Castrovillari 13
C-130 13
Coloured 13
Blvd 13
Moench 13
ated 12
Alkmaair 12
fictional 12
o 12
Maya 12
behalf 12
Drake 12
Harry 12
1533.0 12
900.0 12
Kapitan 12
Shephard 12
Violet 12
invented 12
Pa 12
Teow 12
hardback 12
Chicharrón 12
Lewis 12
Doug 12
B.S 12
beds 12
Khalid 12
et 12
Rudolph 12
1360-0443 12
w@@ 12
arrabbiata 12
ego 12
during 12
Little 12
120 12
3500.0 12
Keystone 12
eat 12
Turkmenabat 12
romane 12
Aethelwald 12
lettuce 12
1080-6377 12
originate 12
make 12
3990.0 12
21st 12
Futbol 12
international 12
en@@ 12
Spata 12
Hardwick 12
notable 12
Springfield 12
Warton 12
Clancy 12
services 12
07/25 12
o@@ 12
Catania 12
it@@ 12
ATISET 12
Study 12
AMHAAJ 12
83 12
Reference 12
Sahle 12
610.0 12
however 12
several 12
Cesana 12
Gates 12
Philip 12
HQ 12
1800 12
4349 12
Cottingham 12
3,500 12
t@@ 12
championship 12
belonging 12
alter 12
flight 12
62145.3 12
nice 12
Mahmood 12
KABI 12
Legislative 12
110 12
Route 12
0-7653-0633-6 11
94 11
Wizards 11
1800.0 11
53502 11
commerce 11
Rapid 11
2744.0 11
1121.0 11
MS 11
1933-10-17 11
Aiport 11
airlines 11
49805501 11
past 11
Romano 11
Varese 11
Halton 11
Peoples 11
4349.0 11
impact 11
# 11
firm 11
representative 11
121.92 11
2744 11
hometown 11
books 11
oregano 11
Machinery 11
Abe 11
Calero 11
Bibbowski 11
peninsula 11
Jacobean 11
inauguration 11
Uderzo 11
Aids 11
E 11
Eredivisie 11
Bodley 11
publish 11
1873 11
1878 11
Runway 11
Aviv 11
AD 11
focused 11
R.S.C. 11
Comic 11
art 11
Solanaceae 11
she 11
Srl 11
addition 11
parts 11
BS 11
Ammann 11
offset 11
museum 11
finch 11
additionally 11
N.J. 11
preparation 11
Albert 11
Southeastern 11
CEPT 11
if 11
opp 11
Head 11
Dutch 11
texas 11
Dimmit 11
Graduate 11
Californian 11
Ring 11
titled 11
Harcourt 11
Byron 11
Nebraska 11
Stevens 11
21 11
Chung 11
Vorwärts 11
Lalbhai 11
Redefine 11
throughout 11
1411 11
Runcorn 11
597.0 11
Lincoln 11
Scrivener 11
Computer 11
Jerry 11
Lord 11
Tudyk 11
Liberal 11
Mobility 11
formation 11
Estádio 11
Udinese 11
n 11
ic@@ 11
Maccabi 11
pecorino 11
Red 11
Justice 11
siomay 11
turn 11
03R/21L 11
surfaced 11
cities 11
minister 11
Amarillo 11
Ordway 11
Jamie 11
0025-5858 11
Democrats 11
Samuel 11
Modling 11
Properties 11
Fire 11
Alianza 11
Curtis 11
Chicharron 11
Irlam 11
Tel 11
Mechanics 10
1930-01-20 10
episode 10
Bones 10
Feb 10
A.E. 10
matches 10
Anwar 10
Asphalt 10
3746.66 10
Roland 10
prime 10
UTC 10
27nd 10
original 10
Soldiers 10
Pol. 10
factor 10
concerned 10
Works 10
River 10
chancellor 10
LLCN 10
Liga 10
1971 10
Rona 10
re@@ 10
Manley 10
Pure 10
Bibbo 10
prequel 10
k@@ 10
start 10
Paraná 10
put 10
as@@ 10
headed 10
Vorwarts 10
Desteapta-te 10
SBCT 10
By 10
23.0 10
consists 10
V 10
Monroe 10
ATA 10
1,121 10
Arifin 10
voiced 10
51969173 10
Pallotta 10
lemons 10
Schneider 10
fans 10
amatriciana 10
Eisner 10
Mar 10
2989.0 10
nicknamed 10
Topklasse 10
works 10
Discipline 10
10/03/1983 10
primary 10
360 10
stands 10
post 10
2702.0 10
Zakaria 10
Nockalls 10
senator 10
Kellamergh 10
Jamali 10
ID 10
Aarus 10
Bloomsbury 10
sandesh 10
75 10
C@@ 10
Turkmenbashi 10
Blackburn 10
Portugal 10
al@@ 10
post-graduate 10
Mödling 10
AAIDBI 10
600.0 10
hosts 10
Zaheer 10
Mindanao 9
Asa 9
el@@ 9
paleontology 9
Arapiraca 9
'' 9
814 9
0236-5294 9
233 9
so 9
Laurales 9
3,992.88 9
Jon 9
in@@ 9
1,533 9
T@@ 9
lo@@ 9
a.s.l. 9
Outagamie 9
Limited 9
land 9
1936 9
Clayton 9
Brooke 9
Vigor 9
a@@ 9
rooms 9
onion 9
th@@ 9
obtained 9
j@@ 9
Primera 9
designers 9
S.p.A 9
Glendower 9
Dalpatbhai 9
still 9
44114 9
operator 9
Klubu 9
Razak 9
ft 9
Pilot 9
leading 9
318875313 9
Bridge 9
c@@ 9
famous 9
genre 9
SpA 9
appointed 9
st@@ 9
90640840 9
Mitchell 9
Sept 9
CA 9
crewed 9
m. 9
B@@ 9
council 9
designer 9
3048.0 9
living 9
C.F.C. 9
abbrv 9
3,990 9
1480153 9
Monastery 9
coming 9
Haag 9
distributed 9
1998-07-21 9
recipes 9
Bethesda 9
Akihito 9
arem-arem 9
Den 9
-@@ 9
Book 9
join 9
Salvadoran 9
Congress 9
Paperback 9
radio 9
shiitake 9
clubs 9
Phillippines 9
ADO 9
/ 9
aircrafts 9
helicopter 9
500 9
Najib 9
Gigante 9
5 9
carbs 9
12R/30L 9
03/21 9
L 9
/@@ 9
,@@ 9
Ethiopian 9
EPSTH 9
orange 9
out 9
A.S.D. 9
Winnebago 9
10@@ 9
Avocado 8
LASK 8
ates 8
at@@ 8
landmark 8
Pescara 8
Aberdeen 8
B.C. 8
Poland 8
First 8
M. 8
Solanum 8
Travis 8
working 8
Pavloopoulos 8
Merit 8
locally 8
Vienna 8
Persea 8
NY 8
ts 8
Gustavson 8
plane 8
Defense 8
12/30 8
McManus 8
and/or 8
Weber 8
2158-3226 8
Habbaniyah 8
2012 8
Eberhard 8
Westminster 8
Pierce 8
said 8
I.D. 8
2014.0 8
Empoli 8
2,@@ 8
just 8
Vica 8
McCune 8
purple 8
solanaceae 8
BSc 8
Delfino 8
hall 8
Erie 8
resides 8
Leader 8
bakso 8
is@@ 8
J 8
dumpling 8
Legion 8
09R/27L 8
L@@ 8
gr@@ 8
Sapindales 8
Al-Shamal 8
requires 8
Warsaw 8
Palace 8
Fairhead 8
1982 8
an@@ 8
Tart 8
career 8
BC 8
page 8
foods 8
248 8
features 8
id 8
facts 8
craftsman 8
Dilts 8
penned 8
Test 8
Ski 8
Fountain 8
Musuem 8
Damon 8
li@@ 8
17R/35L 8
Stephen 8
Shinzo 8
René 8
Rene 8
1,982 8
Jepson 8
U.K. 8
Aguila 8
build 8
most 8
joining 8
O@@ 8
Laan 8
Brutalist 8
Books 8
rivers 8
Potenza 8
addiction 8
Triestina 8
Publishers 8
novels 8
Wayans 8
1865-8784 8
1.524 8
voice 8
Sara 8
1932-03-15 8
404 8
P@@ 8
got 8
18.0 8
capacity 8
Springer 8
Unione 8
un@@ 8
Transportation 8
733.0 8
34.0 8
Mans 8
DuPage 8
Universitat 8
version 8
Türk 8
Australians 8
Tor 8
Rafael 8
Sports 8
affiliation 8
grams 8
F@@ 8
C.D. 8
Linz 8
Link 8
Batak 8
Lamezia 8
G.P. 8
Bundesliga 8
130 8
academically 8
Monarchy 8
Kendall 8
Abh.Math.Semin.Univ.Hambg 8
Amazing-Man 8
k 7
arros 7
16/34 7
Nakadori 7
Aso 7
came 7
Cowpher 7
exact 7
Koreans 7
ta@@ 7
Lemper 7
Shepherd 7
Ch@@ 7
stone 7
origins 7
1873.0 7
Archarya 7
Kurdish 7
Aug 7
ch@@ 7
Capitol 7
occupation 7
Fulton 7
Asociación 7
pound 7
1974-08-01 7
Istanbulspor 7
specifically 7
us 7
Bronze 7
Air@@ 7
Ad@@ 7
superhero 7
1932-07-27 7
Negre 7
Giorgos 7
4100.0 7
25.0 7
placed 7
3990 7
3400.0 7
3@@ 7
Jacabian 7
we 7
LaVern 7
er@@ 7
AKA 7
heard 7
pe@@ 7
Asociacion 7
A.Ş 7
real 7
recipient 7
Adv 7
Haputhale 7
.Its 7
Shehbaz 7
actually 7
positioned 7
american 7
Apostle 7
retirement 7
Th 7
Owen 7
Macmillan 7
Arrondissement 7
SSD 7
V. 7
dead 7
Schoneiche 7
Al-Abadi 7
Germania 7
may 7
N@@ 7
behind 7
Colón 7
largely 7
Pro/A 7
retiring 7
astronaut 7
important 7
public 7
900 7
M.S 7
numbers 7
potatotes 7
5th 7
ation 7
Am@@ 7
Phillipines 7
Mao 7
Kelvin 7
Nasa 7
ds 7
Pound 7
ethnically 7
ac@@ 7
gemstone 7
appearance 7
A.S.Roma 7
Hays 7
distinguished 7
He 7
when 7
4th 7
Rutaceae 7
PDL 7
college 7
Benjamin 7
63 7
973.0 7
ted 7
operators 7
Appletone 7
heads 7
Language 7
reside 7
Benedict 7
Shuvalan 7
672 7
13017 7
Kaminis 7
Lane 7
patron 7
related 7
8820.0 6
id@@ 6
example 6
organized 6
loc@@ 6
Asō 6
Alexander 6
v@@ 6
Bryning 6
ans 6
Qarabağ 6
Magistrate 6
Hardie 6
citizens 6
A.F.C 6
studies 6
Blackwell 6
Alagoas 6
Rafique 6
nation 6
Blanco 6
ATW 6
Peşəkar 6
Dhalaigh 6
CFC 6
Minangkabau 6
EISSN 6
M.A 6
Iron 6
Zaanstreek 6
Favoritner 6
Ni 6
NV 6
ay 6
Licita 6
Purple 6
te@@ 6
saint 6
2194.0 6
3,800 6
U.S.A 6
d 6
Ando 6
Birkenhead 6
the@@ 6
Library 6
Kate 6
Brenner 6
u@@ 6
abbr 6
Sparta 6
1461102 6
Creek 6
Barrow 6
counties 6
İstanbulspor 6
Salle 6
1999 6
N.Y. 6
Tadao 6
ul@@ 6
enjoyed 6
2,195 6
1818 6
1978 6
Cantania 6
way 6
becoming 6
ethnicity 6
Rick 6
Orange 6
Berry 6
usually 6
not 6
er 6
A.C 6
1923-11-18 6
colours 6
Team 6
St.Louis 6
Pecorino 6
ce 6
coloured 6
1,873 6
arena 6
Fall 6
Everett 6
Benitoite 6
FAS 6
Citrus 6
Nola 6
TS 6
1533 6
Johannis 6
ASD 6
bed 6
Tarō 6
KACY 6
alternatively 6
52.0 6
3,310 6
1510.0 6
study 6
V@@ 6
io 6
ic 6
Rajwana 6
con@@ 6
formerly 6
1/19 6
y@@ 6
ak@@ 6
kilometers 6
Germanic 6
romano 6
Farrar 6
Peña 6
13017.0 6
a.k.a. 6
Laird 6
baths 6
Barcelona 6
2777 6
affilaited 6
18C/36C 6
Aplena 6
province 6
big 6
1080 6
ABI 6
Dáil 6
Senate 6
thought 6
Aman 6
2900 6
560 6
dollar 6
blue 6
Muhammad 6
Regionalliga 6
1960 6
6@@ 6
Giroux 6
1966-02-28 6
corn 6
amateur 6
Media 6
ou@@ 6
begun 6
ian 6
28.0 6
1925 6
Division 6
It 6
kingdom 6
Oct 6
ed@@ 6
Malik 6
Straus 6
various 6
Bo 6
Classification 6
9 6
literature 6
3453.0 6
Éireann 6
Bozo 6
Linn 6
boasts 6
Williamson 6
am@@ 6
Centre 6
wh@@ 6
Basko 6
Criona 6
poales 6
Schuster 5
township 5
APN 5
ate 5
wasp 5
responsible 5
Bank 5
Par@@ 5
Masaaki 5
peso 5
H@@ 5
Barney 5
em@@ 5
spanish 5
ons 5
2 5
18@@ 5
kilometer 5
FSV 5
Commander 5
complete 5
Ní 5
prior 5
07/23/1927 5
14R/32L 5
major 5
1219.0 5
GROUP 5
whole 5
Fruits 5
Flanders 5
Seattle 5
les 5
residents 5
22nd 5
ADICE5 5
SLK 5
h 5
undergraduate 5
> 5
indonesia 5
dinar 5
bananas 5
op@@ 5
J@@ 5
neighbours 5
Ralph 5
0@@ 5
classified 5
E11 5
DeKalb 5
Haarlemmermeer 5
av@@ 5
ter@@ 5
911.0 5
en 5
ti@@ 5
padeh 5
1411.0 5
120m 5
sh@@ 5
-8 5
ar@@ 5
Sweet 5
held 5
air@@ 5
houses 5
physics 5
completion 5
765 5
Bernard 5
kidney 5
AE 5
2@@ 5
Valor 5
Phillipe 5
Exchange 5
attending 5
U@@ 5
Zwickau 5
ure 5
Amsterdam-Centrum 5
.It 5
Críona 5
prominent 5
Syst. 5
ne@@ 5
8002 5
Enge 5
mobility 5
call 5
meal 5
Benton 5
Ahora 5
basil 5
CD 5
Admisham 5
bombed 5
me@@ 5
00@@ 5
Marriot 5
claim 5
Grant 5
participated 5
e-@@ 5
ranking 5
2/20 5
Valencia 5
money 5
4 5
4@@ 5
3/21 5
7877110 5
Texan 5
house 5
Laughlin 5
orders 5
common 5
Asians 5
source 5
Crespi 5
planes 5
Elkin 5
ab@@ 5
Saint 5
Lucky 5
Payne 5
abbreviating 5
ro@@ 5
Brazilian 5
ly 5
identified 5
Marousi 5
Gerstman 5
Iraqi 5
venue 5
Zwanenburgbaan 5
Group 5
ens 5
Tanaka 5
days 5
took 5
1973 5
Wang 5
games 5
um@@ 5
dumplings 5
Emperor 5
H. 5
30@@ 5
Buxton 5
fourth 5
term 5
distributor 5
r 5
4,100 5
granted 5
provides 5
2953 5
Space 5
residence 5
Dhálaigh 5
618 5
K@@ 5
L'Engle 5
JP 5
ies 5
Pudding 5
Lentivirus 5
ent@@ 5
ASB 5
Vinoly 5
678 5
Simon 5
lulia 5
vice 5
noted 5
Randall 5
7/25 5
attend 5
whilst 5
Tarrant 5
Pedas 5
publishers 5
press 5
Mathews 5
ction 4
Şehitleri 4
Ecology 4
cre@@ 4
stadium 4
child 4
3684 4
Retrovirus 4
capitol 4
municipal 4
sub@@ 4
1988-11-22 4
counts 4
inside 4
Monarch 4
Sago 4
Sage 4
Bart 4
saw 4
2702 4
gre@@ 4
I 4
214 4
around 4
fritters 4
chicharron 4
am 4
ar 4
th 4
information 4
ally 4
Al@@ 4
virus 4
Has 4
Wever 4
see 4
sen 4
3048 4
MacDonald 4
into 4
coden 4
walked 4
enrolled 4
Ald@@ 4
produces 4
legislative 4
4019.0 4
ve 4
laurales 4
Dark 4
04/22 4
1773.0 4
Polderbaan 4
ia@@ 4
ers 4
preced@@ 4
penet 4
12.0 4
6573 4
l 4
standard 4
runs 4
covering 4
Left 4
33@@ 4
loyal 4
Rico 4
2988 4
Apium 4
comprised 4
SqKm 4
Marcos 4
only 4
Librarian 4
E-Book 4
ruler 4
ruled 4
martyrs 4
wheat 4
central 4
outlook 4
W@@ 4
1200 4
Balgalore 4
editors 4
2195.0 4
4,349 4
referred 4
7 4
lie 4
20@@ 4
N 4
belong 4
obviously 4
Madeleine 4
paneer 4
structure 4
sapindales 4
2009-10-02 4
Wellington 4
resident 4
Governing 4
Barbetti 4
ma@@ 4
Ages 4
tenderloin 4
star 4
Frangipane 4
bimonthly 4
Ave. 4
Lasalle 4
NASA-operated 4
three 4
website 4
7202 4
assigned 4
Hopsital 4
ric@@ 4
Doshi 4
Romanian 4
Be@@ 4
Bakou 4
ville 4
french 4
AUD 4
india 4
142 4
man 4
3090 4
ent 4
americans 4
show 4
crewman 4
Anıtı 4
7@@ 4
bi-monthly 4
field 4
u 4
3678 4
Ban@@ 4
20,1930 4
Scriptures 4
Stadion 4
A.F.C.Fylde 4
through 4
se@@ 4
18g 4
ks 4
parented 4
Mckenzie 4
par@@ 4
Mendriso 4
F. 4
united 4
airports 4
pre@@ 4
Techology 4
497 4
Admin.Sci.Q 4
bean 4
cauliflower 4
monarchy 4
Winkler 4
D@@ 4
authority 4
Washtenaw 4
1982.0 4
Hoofdklasse 4
1FC 4
Japanese 4
onto 4
Institue 4
academy 4
Smilodon 4
adding 4
Se@@ 4
port 4
goes 4
speaks 4
populated 4
F16 4
Ketchup 4
ap@@ 4
recipe 4
Millar 4
69 4
3684.0 4
I. 4
Math. 4
os 4
tr@@ 4
4000ft 4
ter 4
soccer 4
12L/30R 4
Lafayette 4
aircraft-capable 4
140000 4
210m 4
AFAS 4
3.3528 4
Ju@@ 4
Count 4
flew 4
2003.0 4
neighboring 4
headquarter 4
2939 4
~ 4
english 4
por@@ 4
8820 4
429.9 3
fossil 3
107.43 3
pro@@ 3
Cephalopod 3
until 3
col@@ 3
ra 3
ASCQAG 3
Code 3
showed 3
project 3
origin@@ 3
commelinids 3
life 3
Concrete 3
administrative 3
755.3 3
facility 3
son 3
actor 3
817 3
Kevin 3
gu@@ 3
Chieti 3
No@@ 3
predomin@@ 3
contained 3
Joh 3
Viñoly 3
representing 3
914.8 3
Northbrook 3
ated@@ 3
O'Neil 3
120770.0 3
12467 3
Pork 3
39599.0 3
anc@@ 3
min@@ 3
131.6 3
leadership 3
As@@ 3
Steuben 3
ty 3
tv 3
te 3
` 3
lpena 3
ating 3
AIT 3
broadcasting 3
4,019 3
ity 3
524.5 3
2215m 3
972 3
Is 3
Addid 3
commemorated 3
movie 3
champion 3
ci@@ 3
comprise 3
198@@ 3
They 3
format 3
ital@@ 3
Alcobenda 3
dictates 3
Antonis 3
Corvallis 3
spending 3
age 3
fresh 3
División 3
597 3
birr 3
publications 3
268.0 3
UTAA 3
One 3
1927-07-23 3
Re@@ 3
ying 3
783.1 3
Indonesia@@ 3
Ausitin 3
Pal@@ 3
Tapioca 3
161.54 3
280m 3
spain 3
surprisingly 3
523.9 3
O'Neal 3
does 3
25.2 3
LaSelle 3
Mad@@ 3
places 3
Almonds 3
1.@@ 3
470 3
Aaarhus 3
1104.1 3
officially 3
Dillian 3
Hogao 3
Amsterdam-Noord 3
Sh@@ 3
hosted 3
Clerk 3
john 3
persea 3
Hazzard 3
Romero 3
monocotyledon 3
involving 3
Anne 3
predecessor 3
2,194 3
Undergraduate 3
Schuphol 3
ain 3
help 3
battlefield 3
mar@@ 3
3090.0 3
Dept 3
?? 3
product 3
Cannon 3
ities 3
forms 3
Jo@@ 3
em 3
Hungar. 3
518 3
arròs 3
Logan 3
ance 3
Alley 3
9001 3
eral 3
Cookie 3
609 3
Law 3
rec@@ 3
very 3
-7 3
z@@ 3
event 3
arrondissement 3
211m 3
74.33 3
us@@ 3
144.7 3
Tait 3
locals 3
ranked 3
Mr 3
Gar@@ 3
airforce 3
governor 3
ight 3
res@@ 3
.0 3
ased 3
Palaeontol.Pol 3
ge 3
wizard 3
har@@ 3
Rupiah 3
4100 3
1296.65 3
no@@ 3
Body 3
ser@@ 3
368.65 3
occupied 3
ay@@ 3
R 3
battled 3
connected 3
ura 3
H 3
Bernalillo 3
winner 3
years 3
abreviation 3
controlled 3
examiner 3
Fantasy 3
kke 3
Amatricana 3
Finch 3
Cooking 3
Ba@@ 3
mushrooms 3
San@@ 3
94531 3
Dougherty 3
ents 3
de@@ 3
09/27 3
new 3
1.337 3
Glastonbuy 3
682 3
Blue 3
men@@ 3
Car@@ 3
ol@@ 3
ish 3
featured 3
Halls 3
istr@@ 3
12@@ 3
Andalusian 3
193@@ 3
aj@@ 3
2195 3
CF 3
ie 3
102372 3
fighters 3
1773 3
vari@@ 3
4.14 3
co@@ 3
0 3
adviser 3
ger 3
tall 3
14.2 3
Sandoval 3
ore 3
di@@ 3
little 3
Aalsmeerbaan 3
Legislature 3
memberrs 3
WI 3
Turkeys 3
ence 3
seal 3
Navajo 3
-born 3
z 3
ately 3
Shinzō 3
1421.2 3
Auckland 3
2776 3
N.@@ 3
island 3
159m 3
Rotterdam 3
lian 3
winning 3
po@@ 3
347.1 3
chute 3
2,776 3
Bundsgaard 3
ass@@ 3
bb@@ 3
ce@@ 3
Am.J.Math 3
beginning 3
youth 3
Si@@ 3
A.S.Livorno 3
1,219 3
Desteapta 3
simply 3
fun 3
italy 3
spend 3
be@@ 3
PremierLeague 3
subsidiary 3
prepared 3
cur@@ 3
desert 3
Brit@@ 3
39 3
30 3
alaska 3
Eastman 3
f 3
1-4-2 3
le 3
ll 3
Senator 3
Cubanelle 3
her 3
str@@ 3
ig@@ 3
Vicent 3
Orthoretrovirinae 3
Casillas 3
serv@@ 3
ad 3
469 3
almost 3
4019 3
position 3
Pesokar 3
Milionis 3
est 3
host 3
1635 3
number@@ 3
Postmodern 3
Mag@@ 3
su@@ 3
pen@@ 3
hospital 3
Licata 3
14/32 3
1818.0 3
M@@ 3
large 3
ajo 3
solanales 3
fantasy 3
336265 3
1600 3
though 3
Fransisco 3
Harrietsown 3
48.0 3
Its 3
9@@ 3
colors 3
participating 3
St.Mary 3
ip@@ 3
Manager 3
992.6 3
Ethiopa 3
54 3
ica 3
U.S.A.F. 3
55.4 3
Puidgemont 3
mainly 3
ters 3
Catalonian 3
gl@@ 3
1,411 3
Univerrsity 3
Antioquio 3
fi@@ 3
runaway 3
Eehoorn 3
cuisine.The 3
Richland 3
Oostbaan 3
competition 3
Architetturia 3
follow 3
leader@@ 3
tes 3
ru@@ 3
ics 3
877.0 3
developed 3
Danes 3
Hugh 3
ur@@ 3
king 3
140.8 3
Olympia 3
ard 3
ps 3
896 3
flows 3
fe@@ 3
homeground 3
Sumatran 3
consist 3
75.324 3
Mahé 3
Metro 3
Ethopia 3
15@@ 3
R@@ 3
94509 3
chose 3
Noord 3
metro 3
Almond 3
metre 3
apple 3
Birr 3
Architectural 3
citrus 3
ous 3
performs 3
barny 3
1.7 3
1.0 3
Shiitake 3
733 3
lan@@ 3
sytle 3
el 3
Champions 3
286.5 3
branch 3
Gran@@ 3
Foundation 2
Hungar@@ 2
And@@ 2
hero 2
ater 2
cap@@ 2
therefore 2
F15 2
Bajji 2
Bing@@ 2
ob@@ 2
Lo@@ 2
oo@@ 2
El@@ 2
senators 2
Are@@ 2
26@@ 2
3,300 2
Philippin@@ 2
Indones@@ 2
Shitake 2
11@@ 2
unrelated 2
Bartalone 2
needed 2
PeterStöger 2
ook@@ 2
02@@ 2
X 2
Eireann 2
best 2
62.0 2
30th 2
Meringue 2
L/@@ 2
Christopher 2
Tomato 2
AC@@ 2
Capital 2
Bakwell 2
320-page 2
344.9 2
ham 2
Peanut 2
Kimber@@ 2
bo@@ 2
7.@@ 2
10/@@ 2
own@@ 2
Kaila 2
republic 2
developers 2
Mon@@ 2
ren 2
Malas@@ 2
7and 2
Kheria 2
Banaman 2
Ap@@ 2
Colomb@@ 2
Bi@@ 2
apium 2
st 2
ri@@ 2
E@@ 2
accompan@@ 2
2743.0 2
ong 2
Bakew@@ 2
runways 2
6,573 2
Math@@ 2
Manh@@ 2
of@@ 2
alum@@ 2
1142.3 2
ceived 2
Add@@ 2
going 2
Ac-130 2
Mexicans 2
Olive 2
Tripp 2
icop@@ 2
129@@ 2
Out@@ 2
ack 2
acy 2
Ethelwald 2
site 2
ab 2
ai 2
follow-up 2
2007 2
ing@@ 2
t. 2
Mendris@@ 2
-based 2
attendance 2
Romane 2
ong@@ 2
Arhus 2
inagurated 2
RSC 2
rectore 2
524.0 2
Class 2
Dim@@ 2
w 2
ft. 2
1239.3 2
657 2
commemorates 2
design@@ 2
Italy@@ 2
coun@@ 2
Airlines.The 2
Buitenveldertbaan 2
Students 2
877 2
Vermicelli 2
styled 2
J.V 2
Both 2
486.2 2
Os 2
projects 2
Arr@@ 2
primarily 2
serverd 2
nu@@ 2
ur 2
un 2
uk 2
influence 2
Julius 2
Ribbon 2
indian 2
ler 2
great 2
686.0 2
ucia 2
makes 2
334 2
Me@@ 2
11/39 2
911m 2
educational 2
610m 2
2013 2
2989m 2
458 2
x@@ 2
jersey 2
Pe@@ 2
manor 2
fact 2
1969.09.01 2
aircaft 2
au@@ 2
PA 2
tt@@ 2
Zeland 2
Bus@@ 2
co 2
575 2
cy 2
Zamboangan 2
Strawberries 2
Ahmet_Davutoğlu 2
v. 2
command 2
Bin@@ 2
emat@@ 2
9.0 2
ite@@ 2
variety 2
details 2
Page 2
BCC 2
16.55 2
fed@@ 2
Dail 2
MAT 2
chez 2
7th 2
+ 2
consisting 2
daughter 2
0-@@ 2
lac@@ 2
S4 2
orthoretrovirinae 2
office 2
versus 2
them 2
Puigd@@ 2
Wars 2
.0867 2
Allan 2
.BLT 2
PR6031 2
do 2
sauce@@ 2
/1966 2
intro@@ 2
0,@@ 2
6.81 2
monarch 2
Green@@ 2
Karanataka 2
redi@@ 2
reg@@ 2
AEthelwald 2
Wiconsin 2
neighb@@ 2
graduates 2
Gram 2
Gujurat 2
iciana 2
Pfk 2
2215 2
Cream 2
dying 2
3.@@ 2
devoted 2
Bolf 2
airing 2
p 2
aijan 2
2989 2
Fort 2
appears 2
iba 2
Tayler 2
cal 2
Barak 2
produce 2
7,202 2
Metropolitan 2
Greater 2
Eliot 2
ek 2
opened 2
aw@@ 2
im@@ 2
uni@@ 2
brarians 2
3,453 2
Dr.Sarvapalli 2
St@@ 2
anco 2
A.T 2
fifth 2
a.The 2
repres@@ 2
confectionary 2
dr@@ 2
Tor@@ 2
Al-@@ 2
media 2
closest 2
Postgraduate 2
death 2
read 2
Jav@@ 2
109@@ 2
indigen@@ 2
hon@@ 2
lor 2
Bethseda 2
Spain@@ 2
Universi@@ 2
Retroviruses 2
Aristoteles 2
louis 2
abbreivated 2
pur@@ 2
qu@@ 2
Gr@@ 2
Sq 2
commenced 2
FC. 2
SS 2
ions 2
746 2
derives 2
crafts 2
Pol@@ 2
Dessert 2
ys 2
technolog@@ 2
Falcons 2
vers@@ 2
tit@@ 2
Fried 2
pa@@ 2
De@@ 2
Alcharya 2
Julie 2
Poacea 2
Johannesburg 2
establish@@ 2
var@@ 2
utili@@ 2
ada 2
ult@@ 2
06/24 2
Conrnell 2
008 2
studiies 2
Blaenau 2
NWS 2
97@@ 2
82.8 2
Infrareo 2
3/10/1983 2
ut@@ 2
5@@ 2
focuses 2
overseen 2
Deryshire 2
bas@@ 2
formally 2
control 2
ines@@ 2
Fair@@ 2
outer 2
Aklmaar 2
mon@@ 2
achievements 2
ech 2
Ind@@ 2
management 2
Winckler 2
Billie 2
Heinlen 2
ati@@ 2
Fiorentia 2
Curitaba 2
ayed 2
-1@@ 2
earned 2
Jusef 2
Gen@@ 2
ked 2
kes 2
29@@ 2
24@@ 2
style`@@ 2
ine 2
535.0 2
competitor 2
17,000 2
Palaeontological 2
929.0 2
Souza 2
tter 2
Associ@@ 2
Aj@@ 2
sub-group 2
govern 2
com@@ 2
nel 2
active 2
Benedicts 2
28@@ 2
Techn@@ 2
Bhaj@@ 2
give 2
Ru@@ 2
U.K 2
AlP 2
ently 2
Newark 2
operationg 2
better 2
navy 2
oc@@ 2
ist 2
mashed 2
27367194 2
sn@@ 2
bat 2
hel@@ 2
01 2
388-page 2
manag@@ 2
mexico 2
il 2
806 2
yet 2
1@@ 2
Kaagbaan 2
Den@@ 2
Lufthaven 2
too@@ 2
om@@ 2
iliated 2
banyumasan 2
13@@ 2
13017,0 2
bordered 2
fortress 2
Lansing 2
ians 2
aya 2
fly 2
enjo@@ 2
Institude 2
Beintoite 2
membership 2
Rod@@ 2
399@@ 2
Covington 2
S.S.D 2
Shuvulan 2
ort 2
ors 2
carry 2
Canyon 2
Wiliam 2
Dc 2
Du 2
205 2
Strawberry 2
13,123 2
istan 2
Services 2
929 2
Airportis 2
Jesús 2
Brooke-@@ 2
main@@ 2
197@@ 2
identifiers 2
Izm@@ 2
Ar@@ 2
aceae 2
've 2
measuring 2
Eth@@ 2
polit@@ 2
well.The 2
and@@ 2
13123 2
cons@@ 2
PR6031O867 2
3500m 2
4,000 2
Albilene 2
Mississ@@ 2
Station 2
Man@@ 2
Round 2
oun@@ 2
Xialong 2
PS3523.E55 2
Philipp@@ 2
aba 2
A.C.Chievo 2
movement 2
component 2
Europe 2
Brasil 2
Nar@@ 2
are@@ 2
responsibility 2
39599 2
ag@@ 2
late 2
Apiaceae 2
Val@@ 2
ach@@ 2
rated 2
Squeezed 2
He@@ 2
ton 2
A.@@ 2
ka 2
ke 2
affiliations 2
ones@@ 2
Allam 2
Austin.@@ 2
flavoured 2
inv@@ 2
bengo 2
ignit 2
Easter 2
products 2
predominantly 2
.88 2
squ@@ 2
Turk@@ 2
follows 2
inclusdes 2
graduation 2
adrid-@@ 2
Advance 2
US@@ 2
An@@ 2
Telagana 2
fran@@ 2
bers 2
Contra 2
Fl@@ 2
3m 2
others 2
infantry 2
employs 2
winners 2
chief 2
Le@@ 2
l. 2
or@@ 2
res 2
math 2
ree 2
rit@@ 2
discipine 2
sadly 2
Machine 2
Mexic@@ 2
Worth 2
Arem-Arem 2
Gett@@ 2
teams 2
colombian 2
passing 2
Tacoma 2
Academ@@ 2
sausages 2
ib@@ 2
Unversity 2
Bionic@@ 2
helped 2
claimed 2
ion 2
Order 2
fig@@ 2
ado 2
Math.Hungar 2
legislated 2
intere@@ 2
worthy 2
je@@ 2
biggest 2
I.D 2
INf@@ 2
0.@@ 2
lab@@ 2
dales 2
rele@@ 2
street 2
stared 2
would 2
abbrevi@@ 2
Accadem@@ 2
derbaan 2
Helipad 2
poken 2
Inter@@ 2
2,215 2
17/@@ 2
Willian 2
F.c 2
loca@@ 2
Kar@@ 2
pt 2
random 2
541 2
despite 2
Bini@@ 2
Literature 2
der@@ 2
gipane-based 2
advances 2
346.0 2
Singapore.It 2
Eenhoorn 2
ico 2
09/01/1969 2
obtaining 2
3300.0 2
Solan@@ 2
categorization 2
Mariott 2
1971-07-01 2
flavour 2
490.9 2
fier 2
whet 2
Costa 2
English-@@ 2
philippines 2
3/@@ 2
Porius 2
o.It 2
es@@ 2
2.@@ 2
Dupage 2
des@@ 2
today 2
chocolate 2
Ground 2
rom@@ 2
il@@ 2
Cake 2
per@@ 2
Filippino 2
Pl@@ 2
ial 2
ane 2
ana 2
tarts 2
ant 2
ita 2
Technolog@@ 2
Akrons 2
th-east 2
Sar@@ 2
3310 2
et@@ 2
ea@@ 2
Monuments 2
505 2
shor@@ 2
components 2
sequ@@ 2
ethinic 2
Roule@@ 2
Located 2
aircarft 2
ear@@ 2
Adv@@ 2
Rock 2
om 2
eric@@ 2
amongst 2
together 2
cop@@ 2
q@@ 2
als 2
ron 2
al. 2
ical 2
Loc@@ 2
ysburg 2
28,1966 2
4.@@ 2
258.2 2
bhaji 2
Rebelllion 2
organised 2
caucasian 2
/01 2
Denamrk 2
Aircraft 2
19,238 2
2439.0 2
Oliver 2
alus@@ 2
abb@@ 2
770 2
ran@@ 2
founding 2
Jes@@ 2
ark 2
recently 2
SqK 2
widely 2
peoples 2
Kuttittattoor 2
N.M. 2
lost 2
4/2@@ 2
Spain.It 2
sauces 2
crisis 2
Frenchman 2
ex@@ 2
sou@@ 2
cover 2
du@@ 2
Vou@@ 2
igit 2
pr@@ 2
714 2
Accadmia 2
Mcloughlin 2
ined 2
ounded 2
0.9 2
703.95 2
Ant@@ 2
covered 2
Mac@@ 2
our 2
-speaking 2
8m 2
This 2
For@@ 2
Km 2
rel@@ 2
linked 2
Visvesaraya 2
States.Its 2
Aarh@@ 2
25@@ 2
Ffestin@@ 2
Airpor 2
all@@ 2
38@@ 2
734 2
porting 2
00.00 2
present 2
look@@ 2
AIr@@ 2
Colman 2
ni@@ 2
Commelinid 2
fighting 2
because 2
pasta 2
carried 2
carrier 2
atten 2
pilo@@ 2
100,305 2
'll 2
sandwhich 2
eez@@ 1
Vers@@ 1
nick@@ 1
47@@ 1
reland 1
Jay@@ 1
onge 1
34@@ 1
9m 1
ó@@ 1
uce 1
Was@@ 1
97 1
Baraj@@ 1
Bry@@ 1
Cas@@ 1
hol 1
Do@@ 1
inte@@ 1
McDon@@ 1
Telang@@ 1
DeMar@@ 1
rs 1
ry 1
re 1
190@@ 1
comp@@ 1
Phil@@ 1
aym@@ 1
tion 1
ple@@ 1
bir@@ 1
Mor@@ 1
Buchar@@ 1
ment 1
wide 1
iata 1
ations 1
typ@@ 1
Alcat@@ 1
itional 1
orizo 1
ann@@ 1
ished 1
ano 1
ven@@ 1
reviation 1
M.@@ 1
inc@@ 1
lobemaster 1
ola 1
old 1
Tsip@@ 1
Lar@@ 1
bhai 1
raf@@ 1
jano 1
ve@@ 1
258.@@ 1
Her@@ 1
cl@@ 1
ose 1
tar@@ 1
oqu@@ 1
erala 1
vil@@ 1
Guar@@ 1
ollo@@ 1
195@@ 1
fer@@ 1
alter@@ 1
neigh@@ 1
Wor@@ 1
sa 1
se 1
tta 1
pat@@ 1
214@@ 1
fil@@ 1
inag@@ 1
ona 1
lem@@ 1
umb@@ 1
Instit@@ 1
Amaz@@ 1
46.0 1
form@@ 1
foss@@ 1
Phillip@@ 1
uc@@ 1
Hun@@ 1
Dal@@ 1
Eng@@ 1
stbaan 1
memor@@ 1
orent@@ 1
Stre@@ 1
Gujar@@ 1
Ras@@ 1
ret@@ 1
elaka 1
bur@@ 1
Q@@ 1
side 1
act 1
portiva 1
Guadalaj@@ 1
Ma@@ 1
ae 1
ument 1
az 1
tru@@ 1
ris@@ 1
Ser@@ 1
tt 1
ta 1
feat@@ 1
fam@@ 1
Kutti@@ 1
Pict@@ 1
amp@@ 1
chan@@ 1
8-@@ 1
itoite 1
Mumb@@ 1
Grou@@ 1
112@@ 1
R/@@ 1
44811 1
Applet@@ 1
Ram@@ 1
alli 1
alls 1
199@@ 1
Th@@ 1
etown 1
/01/@@ 1
Portu@@ 1
man@@ 1
uta@@ 1
inh@@ 1
Harri@@ 1
set 1
Rasmus@@ 1
Architett@@ 1
6,@@ 1
surpris@@ 1
Sand@@ 1
haj@@ 1
gen@@ 1
Commelin@@ 1
Azerb@@ 1
Ak@@ 1
y-@@ 1
up@@ 1
She@@ 1
Wickrem@@ 1
ator 1
ling 1
signific@@ 1
erick 1
cio 1
um 1
ue 1
elev@@ 1
ago 1
Bel@@ 1
Harrietst@@ 1
tro 1
try 1
Sl@@ 1
ilm@@ 1
ley 1
Uni@@ 1
igher 1
á@@ 1
hol@@ 1
atten@@ 1
pl@@ 1
entifi@@ 1
rón 1
ves@@ 1
ties 1
Jan@@ 1
mingham 1
spe@@ 1
off@@ 1
apor@@ 1
Vi@@ 1
produ@@ 1
pines 1
tot@@ 1
tballer 1
lot 1
Frans@@ 1
1-@@ 1
jan 1
avad 1
compris@@ 1
eth 1
ch 1
ca 1
Wash@@ 1
ct 1
G.@@ 1
ff@@ 1
2014@@ 1
ra@@ 1
hom@@ 1
1966@@ 1
1969@@ 1
Davutogl@@ 1
tino 1
84.0 1
ctur@@ 1
pi@@ 1
int 1
ins 1
ino 1
ini 1
2-@@ 1
ina 1
5600@@ 1
Amar@@ 1
Monoc@@ 1
concer@@ 1
cian 1
sta@@ 1
crete 1
ously 1
Barejas 1
hore 1
liament 1
iv@@ 1
ake 1
Rut@@ 1
ere 1
/2@@ 1
ero 1
ounds 1
deplo@@ 1
sp@@ 1
ato@@ 1
head@@ 1
orit@@ 1
educ@@ 1
Rad@@ 1
Salv@@ 1
Schneider-@@ 1
Spal@@ 1
employe@@ 1
ess@@ 1
Er@@ 1
Sci@@ 1
ative 1
ph@@ 1
ema 1
ith@@ 1
ered 1
wo 1
wn 1
occup@@ 1
ils 1
ily 1
2439@@ 1
leng@@ 1
Mat@@ 1
Malays@@ 1
aid 1
sl@@ 1
liv@@ 1
hand 1
ban@@ 1
ths 1
retir@@ 1
533 1
urdish 1
Aki@@ 1
Te@@ 1
Vaju@@ 1
gal@@ 1
Har@@ 1
Char@@ 1
Sch@@ 1
ionally 1
igh@@ 1
chichar@@ 1
Str@@ 1
garl@@ 1
1-8392 1
Engl@@ 1
Gree@@ 1
Lat@@ 1
burgbaan 1
stan@@ 1
Ramap@@ 1
In@@ 1
Is@@ 1
,0 1
843.8 1
duc@@ 1
colo 1
Falluj@@ 1
ea 1
ey 1
ylvania 1
Zw@@ 1
Or@@ 1
Sc@@ 1
Sum@@ 1
Pak@@ 1
Azer@@ 1
Marcol@@ 1
LCC@@ 1
pan@@ 1
Foo@@ 1
600@@ 1
98@@ 1
contro@@ 1
erney 1
Pen@@ 1
es.The 1
choy 1
Catalon@@ 1
low 1
ern@@ 1
Johns@@ 1
anac 1
HIV/@@ 1
.0@@ 1
ba@@ 1
17R/@@ 1
aff@@ 1
Kal@@ 1
num@@ 1
ff 1
ev@@ 1
uring 1
yk 1
ym 1
ya 1
ces 1
cer 1
bruary 1
Lufthav@@ 1
tronau@@ 1
Mas@@ 1
inery 1
asa 1
Fran@@ 1
ewell 1
jamin 1
434@@ 1
Cor@@ 1
tive 1
Hel@@ 1
cr@@ 1
lin 1
Pi@@ 1
ining 1
Ioh@@ 1
astern 1
tal@@ 1
x 1
order@@ 1
mash@@ 1
77@@ 1
900@@ 1
edi@@ 1
uss@@ 1
00m 1
Sp@@ 1
States@@ 1
Mar@@ 1
indones@@ 1
Fred@@ 1
Ay@@ 1
lesen 1
tered 1
7156-3648-0 1
Serg@@ 1
Poac@@ 1
ids 1
iguez 1
Prefe@@ 1
ute 1
Bir@@ 1
ool 1
Aff@@ 1
enada 1
oVerona 1
Arapiraqu@@ 1
gs 1
abo@@ 1
za 1
stru@@ 1
win 1
erb@@ 1
vir@@ 1
tim@@ 1
Guj@@ 1
Malay@@ 1
fill@@ 1
ically 1
Wolf@@ 1
AF@@ 1
Clu@@ 1
Tur@@ 1
cen@@ 1
quar@@ 1
ece 1
ocado 1
Anb@@ 1
Ge@@ 1
ber 1
able 1
eg@@ 1
36@@ 1
Pes@@ 1
urk 1
varie@@ 1
speak@@ 1
itra 1
tto 1
Amhar@@ 1
ker 1
Enter@@ 1
vis@@ 1
saus@@ 1
BN 1
ash@@ 1
B.@@ 1
524@@ 1
11-1@@ 1
982 1
with@@ 1
? 1
Br@@ 1
pale@@ 1
az@@ 1
oring 1
Belg@@ 1
eae 1
Austr@@ 1
'@@ 1
Rom@@ 1
antry 1
Au@@ 1
Librar@@ 1
look 1
10m 1
ned 1
ney 1
Dall@@ 1
ippi 1
27@@ 1
istor@@ 1
examp@@ 1
Ko@@ 1
al-@@ 1
ove 1
War@@ 1
Co@@ 1
10.0 1
cret 1
4,@@ 1
ministr@@ 1
erto 1
Od@@ 1
erts 1
Guadal@@ 1
G@@ 1
ers@@ 1
Pu@@ 1
Av@@ 1
back@@ 1
foc@@ 1
gradu@@ 1
eng@@ 1
stud@@ 1
68@@ 1
bal 1
00 1
enza 1
1/@@ 1
Y@@ 1
ting 1
coben@@ 1
46.66 1
inghe 1
ix 1
ir 1
im 1
Hailemar@@ 1
NASA-@@ 1
Lim@@ 1
800 1
Can@@ 1
Lam@@ 1
burg 1
ement 1
Com@@ 1
bury 1
eth@@ 1
uter 1
utes 1
tb@@ 1
3.8 1
192@@ 1
dabad 1
Tel@@ 1
Tex@@ 1
die 1
ited 1
Ahme@@ 1
Gras@@ 1
Ahmet_@@ 1
bor 1
AID@@ 1
Dalpat@@ 1
iana 1
Coll@@ 1
publ@@ 1
ana@@ 1
ood 1
mil@@ 1
Ang@@ 1
877@@ 1
pine 1
.C. 1
Gard@@ 1
adi@@ 1
Steph@@ 1
Col@@ 1
ork 1
ora 1
achie@@ 1
Bak@@ 1
Americ@@ 1
10 1
13 1
19 1
.D 1
airc@@ 1
liment 1
Sta@@ 1
Wh@@ 1
We@@ 1
Putraj@@ 1
condim@@ 1
Vis@@ 1
Sou@@ 1
ji 1
Georg@@ 1
Oh@@ 1
renchman 1
siz@@ 1
Ag@@ 1
R/21L 1
1966-0@@ 1
af@@ 1
ants 1
occer 1
Ho@@ 1
ey@@ 1
ingly 1
Ni@@ 1
Pallo@@ 1
addum 1
Turkmenbas@@ 1
Akti@@ 1
servative 1
La@@ 1
1400@@ 1
8.@@ 1
A.C.@@ 1
ceiv@@ 1
ium 1
hard@@ 1
ences 1
Tir@@ 1
org@@ 1
Id@@ 1
ded 1
196@@ 1
pena 1
ons@@ 1
asher 1
publish@@ 1
ports 1
hard 1
Cook@@ 1
ider 1
ein@@ 1
carbohydr@@ 1
Ben@@ 1
ze 1
pard 1
para 1
park 1
cuisine@@ 1
Dem@@ 1
ages 1
Lumezz@@ 1
author@@ 1
portis 1
ko 1
Ab@@ 1
legisl@@ 1
kson 1
inhabit@@ 1
ber@@ 1
varaya 1
perleague 1
deve@@ 1
adm@@ 1
stit@@ 1
part@@ 1
Shar@@ 1
cook@@ 1
Agr@@ 1
def@@ 1
Mary@@ 1
hit@@ 1
Pro@@ 1
abian 1
nation@@ 1
114@@ 1
pee 1
uary 1
IS@@ 1
ga@@ 1
broadcas@@ 1
L/36R 1
Musu@@ 1
mat@@ 1
Whee@@ 1
33 1
31 1
nood@@ 1
aca 1
ace 1
,000 1
jo@@ 1
ature 1
ality 1
cas@@ 1
dam 1
das 1
day 1
1,@@ 1
hajji 1
ort@@ 1
provid@@ 1
ude 1
lin@@ 1
mit 1
Un@@ 1
Joh@@ 1
claim@@ 1
Batt@@ 1
lected 1
stor@@ 1
ystems 1
ington 1
bak@@ 1
Ha@@ 1
remi@@ 1
ST@@ 1
Lufth@@ 1
ishnan 1
ataka 1
anaman 1
Med@@ 1
ade 1
03.@@ 1
nolog@@ 1
oger 1
Ed@@ 1
ese 1
esh 1
abour 1
Jac@@ 1
Jal@@ 1
46 1
Radhak@@ 1
occupi@@ 1
port@@ 1
amm@@ 1
ders 1
349 1
gin@@ 1
tab@@ 1
he@@ 1
onis 1
Dr.@@ 1
1114@@ 1
thor@@ 1
Tr@@ 1
loilo 1
Buitenvel@@ 1
ales 1
Hap@@ 1
nie 1
ail@@ 1
politic@@ 1
ian@@ 1
entatives 1
46@@ 1
chie@@ 1
ben@@ 1
Istan@@ 1
add@@ 1
Es@@ 1
Brazili@@ 1
attoor 1
Po@@ 1
land@@ 1
ensis 1
enepura 1
Bas@@ 1
orth 1
57@@ 1
Californi@@ 1
confe@@ 1
utale 1
tember 1
ty@@ 1
Studi@@ 1
els 1
/0@@ 1
Ash@@ 1
acao 1
ich 1
Acc@@ 1
go@@ 1
45@@ 1
Mem@@ 1
Bund@@ 1
na 1
tis 1
ns 1
lev@@ 1
Wid@@ 1
Kuttikk@@ 1
sen@@ 1
Span@@ 1
rop 1
.00 1
des 1
Volun@@ 1
Fe@@ 1
ional 1
san@@ 1
identifi@@ 1
oper@@ 1
12077@@ 1
tern 1
Cal@@ 1
ha@@ 1
Sus@@ 1
Coun@@ 1
iam 1
cted 1
ang 1
Assaul@@ 1
ctor@@ 1
sse 1
run@@ 1
3,@@ 1
ways 1
categoris@@ 1
pot 1
tur@@ 1
inau@@ 1
dic@@ 1
ale@@ 1
ili@@ 1
mex@@ 1
gamie 1
hito 1
Igor@@ 1
ct@@ 1
tro@@ 1
actions 1
19@@ 1
Schip@@ 1
ol 1
od 1
oa 1
ow 1
Oper@@ 1
J.@@ 1
aba@@ 1
teles 1
Delaw@@ 1
ald 1
ale 1
ala 1
bac@@ 1
stre@@ 1
ican 1
Sr@@ 1
crust 1
att@@ 1
AK@@ 1
Fute@@ 1
glas 1
S.@@ 1
deburg 1
219@@ 1
5.0 1
Z@@ 1
Ex@@ 1
Karnat@@ 1
New@@ 1
ards 1
Sadi@@ 1
tel@@ 1
icip@@ 1
char@@ 1
Bat@@ 1
che@@ 1
Arn@@ 1
yster 1
icken 1
Shir@@ 1
Fen@@ 1
dedic@@ 1
owski 1
Indi@@ 1
14@@ 1
Singapor@@ 1
Roman@@ 1
200@@ 1
Garre@@ 1
09@@ 1
iness 1
ars 1
obiology 1
uments 1
ary 1
ings 1
annis 1
c 1
archite@@ 1
peror 1
But@@ 1
pa 1
eration 1
member@@ 1
AD@@ 1
Andre@@ 1
Penns@@ 1
iaolong 1
tem@@ 1
inment 1
ajji 1
Trans@@ 1
ondack 1
anne 1
ries 1
Alf@@ 1
85@@ 1
gre 1
gro 1
cts 1
enti@@ 1
versity 1
Amsterdam-@@ 1
figh@@ 1
Jap@@ 1
22@@ 1
Abadi 1
Paul@@ 1
Fil@@ 1
near@@ 1
iced 1
mo@@ 1
ices 1
ines 1
1,4@@ 1
Universit@@ 1
desig@@ 1
Ran@@ 1
ys@@ 1
well@@ 1
ulspor 1
Ass@@ 1
75@@ 1
nati@@ 1
Bo@@ 1
elskab 1
81 1
embly 1
Mun@@ 1
Airlin@@ 1
8@@ 1
Elizab@@ 1
-0@@ 1
53@@ 1
Bri@@ 1
ough@@ 1
isham 1
qbal 1
revi@@ 1
airman 1
Klu@@ 1
274@@ 1
wald 1
wall 1
Spor@@ 1
foun@@ 1
é 1
irate 1
Arist@@ 1
Cat@@ 1
978-1-4165-4253-@@ 1
C.@@ 1
our@@ 1
anese 1
gur@@ 1
Pie@@ 1
olfo 1
At@@ 1
ows 1
oured 1
Hein@@ 1
miss@@ 1
ez 1
Inf@@ 1
la@@ 1
Bu@@ 1
