. 25303
ENTITY-1 24135
be 21192
ENTITY-2 19849
VP[aspect=simple,tense=present,voice=active,person=3rd,number=singular] 17500
ENTITY-3 15036
in 13451
DT[form=defined] 12858
the 12681
of 11673
, 11024
ENTITY-4 10810
and 9758
ENTITY-5 6533
VP[aspect=simple,tense=present,voice=active,person=3rd,number=null] 6323
VP[aspect=simple,tense=past,voice=active,person=null,number=null] 6233
a 5184
DT[form=undefined] 5180
VP[aspect=simple,tense=present,voice=passive,person=3rd,number=singular] 3932
by 3682
VP[aspect=simple,tense=past,voice=passive,person=null,number=singular] 3615
have 3249
which 3158
ENTITY-6 3069
located 2960
from 2660
where 2314
leader 2256
VP[aspect=simple,tense=present,voice=active,person=non-3rd,number=plural] 2190
as 1551
to 1477
runway 1300
on 1298
bear 1219
VP[aspect=simple,tense=past,voice=active,person=null,number=singular] 1150
serve 1116
city 1113
ethnic 1074
find 1071
for 1051
with 1017
part 1003
at 979
play 969
capital 960
( 936
speak 933
) 926
who 876
ENTITY-7 854
one 846
also 826
name 810
number 785
come 776
length 748
VP[aspect=simple,tense=present,voice=active,person=non-3rd,number=null] 719
dish 703
operate 669
publish 654
ingredient 650
level 631
group 631
sea 629
ingredients 628
above 611
language 602
write 596
lead 583
can 545
main 543
member 536
ground 522
region 509
location 506
VP[aspect=simple,tense=present,voice=passive,person=null,number=null] 503
create 500
crew 498
members 484
establish 482
VP[aspect=progressive,tense=present,voice=active,person=null,number=null] 464
affiliate 463
'' 454
groups 453
originate 446
`` 443
include 437
metres 429
design 409
leaders 396
VP[aspect=simple,tense=infinitive,voice=active,person=null,number=null] 391
manager 379
know 373
make 368
there 364
graduate 360
call 352
ENTITY-8 351
country 328
die 328
contain 327
complete 319
that 315
whose 304
use 293
NASA 291
home 287
students 282
academic 276
manage 242
ISBN 241
VP[aspect=simple,tense=present,voice=passive,person=non-3rd,number=plural] 239
floors 237
currency 234
food 232
variation 229
staff 225
ISSN 221
own 221
VP[aspect=perfect,tense=present,voice=active,person=3rd,number=null] 218
area 202
both 202
popular 199
long 198
now 197
order 182
national 181
retire 180
precede 177
full 173
architect 172
champions 167
state 166
pages 165
OCLC 164
follow 158
select 153
aircraft 152
compete 152
: 151
club 150
season 150
operating 150
first 149
belong 148
base 146
LCCN 145
author 139
traditional 139
meters 136
organisation 134
largest 134
star 133
people 132
become 130
league 129
tenant 128
govern 127
found 122
president 119
discipline 119
National 118
available 117
pilot 114
under 113
floor 108
's 108
; 108
title 107
code 107
' 107
space 106
Places 105
languages 105
Register 105
add 105
Historic 104
award 104
family 104
but 104
attend 102
locate 102
VP[aspect=simple,tense=past,voice=active,person=null,number=plural] 101
dedicate 99
current 98
within 98
backup 97
VP[aspect=simple,tense=past,voice=passive,person=null,number=plural] 96
currently 96
official 96
company 95
surface 95
abbreviate 92
1st 90
abbreviated 90
total 89
parent 89
alternative 88
elevation 86
type 84
many 84
categorise 83
live 82
go 81
style 81
headquarters 80
dean 80
along 80
two 79
construct 79
3rd 77
or 77
identifier 77
join 76
southeast 76
ICAO 76
inaugurate 76
publisher 75
spend 75
abbreviation 75
situate 74
eat 74
population 73
well 72
attach 69
character 68
work 67
broadcast 67
transport 67
they 66
municipality 66
north 66
build 64
choose 64
CODEN 63
anthem 62
win 62
sequel 62
west 61
lie 61
creator 60
- 59
body 59
before 58
begin 58
postgraduate 58
key 58
campus 57
higher 56
nickname 56
than 55
same 55
category 55
student 55
previously 55
variations 55
editor 54
division 54
feet 54
book 54
elevated 52
tenants 52
fight 51
VP[aspect=perfect,tense=present,voice=active,person=non-3rd,number=null] 51
significant 51
influence 51
involve 50
air 50
class 50
give 49
northeast 49
previous 48
VP[aspect=simple,tense=present,voice=active,person=null,number=null] 48
religion 48
inhabitants 47
southwest 47
building 47
once 47
buildings 47
owner 47
among 46
legislature 46
status 45
architectural 44
demonym 44
mater 44
Technical 44
later 43
director 43
organization 43
Campus 43
northwest 43
originally 42
construction 42
President 41
Location 41
Identifier 41
fall 41
headquarter 41
grounds 41
fullname 40
hire 40
` 40
density 40
after 38
then 38
reference 38
DT[form=demonstrative] 38
produce 38
speaking 38
sauce 38
battles 38
hail 38
football 37
start 37
variant 37
local 37
address 36
place 36
alma 36
native 36
inhabit 36
east 35
fighter 35
while 35
run 35
receive 35
count 35
another 34
genus 34
date 34
doctoral 34
represent 34
attack 34
south 33
player 33
perform 33
commonly 33
commander 33
stars 33
mission 33
names 33
edit 33
deploy 33
advisor 31
creators 31
away 30
offer 30
Dean 30
pass 30
airport 30
carriers 29
comic 29
architecture 29
categorize 28
VP[aspect=progressive,tense=present,voice=active,person=3rd,number=singular] 28
you 28
Latin 28
will 28
motto 27
head 27
origin 27
up 27
hub 26
awards 26
nationality 26
Chief 26
person 26
Alma 26
government 26
height 25
former 25
party 25
like 25
established 24
birth 24
IATA 24
latin 24
m 24
novel 24
school 23
cost 23
nearest 23
VP[aspect=perfect,tense=present,voice=passive,person=3rd,number=null] 23
although 23
other 23
study 22
rank 22
erect 22
typical 22
sometimes 22
chairman 22
about 22
appear 21
some 21
command 21
citizen 21
water 20
aboard 20
show 20
alongside 20
river 20
PATIENT-1 20
birthplace 20
employees 19
hold 19
rector 19
jurisdiction 19
provide 19
consider 19
program 19
fat 19
cover 19
codes 19
here 18
voice 18
it 18
time 18
size 18
founder 18
pick 18
town 18
last 18
footballer 18
tourist 17
natives 17
Mater 17
mascot 17
ethic 17
these 17
destination 17
political 17
second 16
county 16
third 16
over 16
mayor 16
associate 16
sport 16
protein 16
all 16
either 16
PATIENT-2 16
regions 16
Director 16
such 16
almaMater 15
Astronaut 15
Office 15
seat 15
via 15
architects 15
reside 15
consist 15
similar 15
Mayor 15
types 14
their 14
focus 14
team 14
connections 14
between 14
otherwise 14
strong 14
since 14
services 14
VP[aspect=perfect,tense=present,voice=active,person=null,number=null] 14
dishes 14
should 14
carbohydrates 14
below 14
several 13
battle 13
sports 13
district 13
different 13
finish 13
operation 13
authors 13
respectively 13
this 13
measure 13
however 12
form 12
beds 12
invent 12
e@@ 12
notable 12
during 12
compliment 12
back 12
high 12
parts 12
additionally 12
Lord 11
ate 11
too 11
p@@ 11
s@@ 11
HQ 11
inauguration 11
Justice 11
turn 11
en@@ 11
h@@ 11
prime 11
concern 11
s 11
minister 11
championship 11
past 11
plant 11
offset 11
impact 11
preparation 11
representative 11
and/or 11
hometown 11
l@@ 11
neighbouring 11
bird 11
page 11
Reference 10
n 10
LLCN 10
Queen 10
Discipline 10
feature 10
episode 10
post 10
course 10
in@@ 10
prequel 10
cities 10
UTC 10
ID 10
t 10
put 10
art 10
# 10
fans 10
plants 10
i@@ 10
often 10
post-graduate 10
u@@ 10
addition 10
Number 10
museum 10
original 10
enjoy 9
aka 9
countries 9
id 9
if 9
just 9
distribute 9
er@@ 9
aircrafts 9
designer 9
still 9
matches 9
es 9
ATA 9
abbrv 9
senator 9
helicopter 9
postal 9
stand 9
operator 9
carbs 9
! 9
factor 9
famous 9
genre 9
pen 9
out 9
position 9
rooms 9
chancellor 9
2nd 9
hosts 9
monument 9
regional 8
foods 8
primary 8
m@@ 8
Izmir 8
nationwide 8
facts 8
re@@ 8
affiliation 8
so 8
require 8
get 8
Leader 8
locally 8
comics 8
film 8
more 8
ft 8
alter 8
c@@ 8
throughout 8
al@@ 8
cuisine 8
participate 8
rivers 8
claim 8
n@@ 8
or@@ 8
books 8
academically 8
I.D. 8
a@@ 8
By 8
appoint 8
series 7
capacity 7
S@@ 7
Pennsylvania 7
say 7
designers 7
o 7
hear 7
when 7
un@@ 7
may 7
take 7
behind 7
k@@ 7
largely 7
recipient 7
origins 7
astronaut 7
important 7
operators 7
numbers 7
ego 7
actually 7
ed@@ 7
5th 7
most 7
occupation 7
see 7
y 7
comprise 7
retirement 7
e 7
Maryland 7
o@@ 7
4th 7
publication 7
ethnically 7
gemstone 7
appearance 7
ly 7
novels 7
Airport 7
obtain 7
alternatively 7
host 7
example 6
organize 6
Congress 6
Minister 6
we 6
near 6
identify 6
d 6
clubs 6
/ 6
co@@ 6
formerly 6
County 6
exact 6
boast 6
usually 6
fly 6
council 6
not 6
b@@ 6
think 6
r 6
EISSN 6
colours 6
real 6
t@@ 6
ar@@ 6
plane 6
Swiss 6
Prime 6
C@@ 6
flight 6
Classification 6
land 6
affilait 6
Library 6
whilst 6
related 6
bed 6
abbr 6
career 6
Influenced 6
A@@ 6
d@@ 5
neighbours 5
m. 5
ers 5
classify 5
fictional 5
j@@ 5
ca@@ 5
commemorate 5
responsible 5
bomb 5
games 5
Navy 5
k 5
con@@ 5
citizens 5
AKA 5
ad@@ 5
term 5
distributor 5
er 5
note 5
1@@ 5
ranking 5
residence 5
costs 5
lo@@ 5
W@@ 5
money 5
ing@@ 5
version 5
a.s.l. 5
prior 5
help 5
major 5
heads 5
orders 5
ation 5
as@@ 5
various 5
politician 5
City 5
ethnicity 5
grant 5
I@@ 5
f@@ 5
source 5
Of 5
planes 5
completion 5
VP[aspect=simple,tense=present,voice=active,person=null,number=singular] 5
residents 5
ro@@ 5
& 5
patron 5
fourth 5
AGENT-1 5
common 5
recipes 5
prominent 5
-@@ 5
League 4
pro@@ 4
enrol 4
vary 4
township 4
onto 4
ents 4
1962 4
V@@ 4
ia 4
ic 4
capitol 4
Emperor 4
way 4
flavour 4
Cornwall 4
editors 4
studies 4
le@@ 4
met@@ 4
el 4
ed 4
year 4
carry 4
recipe 4
only 4
crewman 4
In 4
United 4
ruler 4
refer 4
neighbor 4
outlook 4
prepare 4
Space 4
al 4
ar 4
ts 4
resident 4
w@@ 4
short 4
through 4
air@@ 4
service 4
assign 4
se@@ 4
Club 4
populate 4
aircraft-capable 4
English 4
obviously 4
ll@@ 4
into 4
specifically 4
occupy 4
nu@@ 4
PATIENT-3 4
us 4
coden 4
ab@@ 4
O@@ 4
VP[aspect=progressive,tense=present,voice=active,person=non-3rd,number=plural] 4
r@@ 4
writer 4
control 4
le 4
legislative 4
wh@@ 4
dictate 4
River 4
superhero 4
ch 4
ce 4
walk 4
undergraduate 4
States 4
on@@ 4
works 4
counties 4
g@@ 4
rule 4
G@@ 3
de@@ 3
officially 3
ated 3
th@@ 3
until 3
me 3
legislate 3
very 3
M@@ 3
l 3
ish 3
loca@@ 3
Code 3
project 3
though 3
flow 3
colors 3
do 3
fossil 3
origin@@ 3
Undergraduate 3
cre@@ 3
stitute 3
three 3
stadium 3
manag@@ 3
child 3
fighters 3
sub@@ 3
vari@@ 3
bo@@ 3
inside 3
explosion 3
den@@ 3
following 3
H@@ 3
Architectural 3
product 3
tall 3
forms 3
nation 3
en 3
ha@@ 3
di@@ 3
ans 3
memberrs 3
a.k.a. 3
seal 3
B@@ 3
ea@@ 3
runaway 3
Commander 3
develop 3
fruit 3
around 3
New 3
leadership 3
te 3
large 3
East 3
known 3
adviser 3
playing 3
its 3
perfect,voice=passive,person=null,number=null] 3
house 3
connect 3
print 3
VP[aspect=simple,tense=past 3
w 3
saint 3
king 3
youth 3
VP[aspect=perfect,tense=past,voice=active,person=null,number=null] 3
homeground 3
measures 3
F@@ 3
locals 3
whole 3
community 3
simply 3
champion 3
N 3
look 3
fun 3
ci@@ 3
itself 3
airbase 3
fe@@ 3
subsidiary 3
TV 3
age 3
dessert 3
mat@@ 3
st@@ 3
Body 3
ous 3
su@@ 3
an@@ 3
need 3
ac@@ 3
postcode 3
winner 3
mainly 3
abreviation 3
neighbour 3
ve 3
almost 3
surprisingly 3
Governing 3
sytle 3
est 3
US 3
Champions 3
number@@ 3
branch 3
I.D 2
sub-group 2
unrelated 2
force 2
non-@@ 2
active 2
affiliated 2
daughter 2
Group 2
would 2
therefore 2
lit@@ 2
ent 2
Zealand 2
abbreivate 2
to@@ 2
ently 2
senators 2
devote 2
operationg 2
better 2
them 2
Chancellor 2
formation 2
North 2
features 2
carrer 2
ceive 2
part@@ 2
ng@@ 2
latter 2
predominantly 2
at@@ 2
Ardmore 2
po@@ 2
iate 2
earn 2
best 2
Literature 2
v@@ 2
fry 2
life 2
employ 2
Capital 2
ic@@ 2
inc@@ 2
municipal 2
Postgraduate 2
graduates 2
facility 2
categorization 2
Sandesh 2
rondissement 2
ni 2
test 2
developers 2
ter@@ 2
together 2
inva@@ 2
ice 2
0 2
p 2
not@@ 2
urally 2
publ@@ 2
today 2
ult 2
ke@@ 2
In@@ 2
18@@ 2
membership 2
st 2
predomin@@ 2
ities 2
nic@@ 2
derive 2
et 2
living 2
ors 2
open 2
ial 2
PATIENT-4 2
AGENT 2
runways 2
assi@@ 2
ant 2
St@@ 2
responsibility 2
N@@ 2
alum@@ 2
ance 2
fifth 2
Sou@@ 2
Nat@@ 2
rou@@ 2
operat@@ 2
pay 2
closest 2
identifiers 2
components 2
Ar@@ 2
sequ@@ 2
ethinic 2
landmar@@ 2
death 2
af@@ 2
unre@@ 2
.The 2
T@@ 2
competition 2
ret@@ 2
aircarft 2
ion@@ 2
od 2
indigen@@ 2
tr@@ 2
stare 2
amongst 2
USA 2
ho@@ 2
follow-up 2
field 2
ty 2
tv 2
stre@@ 2
ten 2
rate 2
PATIENT-@@ 2
ru@@ 2
pur@@ 2
si@@ 2
attendance 2
site 2
is@@ 2
der 2
ong@@ 2
CORRECT 2
information 2
utilize 2
sandwich 2
crafts 2
rectore 2
ity 2
soccer 2
cer 2
bb@@ 2
hon@@ 2
event 2
Class 2
houses 2
ase 2
Aircraft 2
lease 2
coll@@ 2
ur@@ 2
cr@@ 2
The 2
organise 2
affiliations 2
founding 2
recently 2
c 2
oversee 2
who@@ 2
ne@@ 2
Students 2
ent@@ 2
widely 2
gr@@ 2
studiies 2
1963 2
administrative 2
Both 2
format 2
projects 2
res@@ 2
ali@@ 2
mately 2
th-east 2
ex@@ 2
inclusdes 2
graduation 2
primarily 2
serverd 2
tally 2
link 2
Austin 2
ue 2
ks 2
Danish 2
structure 2
vice 2
2000 2
Saint 2
random 2
State 2
les 2
others 2
products 2
vir@@ 2
formally 2
Nasa 2
educational 2
sit 2
winners 2
One 2
chief 2
am@@ 2
despite 2
sions 2
1 2
outer 2
inagurate 2
mon@@ 2
quar@@ 2
res 2
ref 2
achievements 2
ect 2
rit@@ 2
Senator 2
g 2
discipine 2
sadly 2
locat@@ 2
commence 2
border 2
langauge 2
interest@@ 2
fier 2
ig@@ 2
fact 2
lat@@ 2
aircaft 2
li@@ 2
teams 2
Fighter 2
publishers 2
ti@@ 2
kes 2
ets 2
İzmir 2
ct 2
sin@@ 2
ls 2
contribute 2
BRIDGE-2 2
present 2
~ 2
we@@ 2
ion 2
variety 2
lose 2
because 2
local@@ 2
Helicopter 2
competitor 2
worthy 2
carrier 2
mb@@ 2
1634 2
introdu@@ 2
biggest 2
he 2
op@@ 2
places 2
2-@@ 2
ing 2
'll 2
details 2
Stud@@ 1
use@@ 1
lis@@ 1
nick@@ 1
com@@ 1
ree 1
fossi@@ 1
dent@@ 1
ater 1
ates 1
iv@@ 1
writ@@ 1
ction 1
abbrevi@@ 1
-up 1
ens 1
sp@@ 1
cont@@ 1
Co@@ 1
0@@ 1
ong 1
P@@ 1
t,voice=active,person=null,number@@ 1
side 1
spec@@ 1
str@@ 1
auth@@ 1
lish 1
re 1
oc@@ 1
comp@@ 1
employe@@ 1
=singular] 1
VP[aspect=simple,tense=present,voice=passive,person=@@ 1
tense=pas@@ 1
gradu@@ 1
ul@@ 1
distr@@ 1
ment 1
add@@ 1
ov@@ 1
ds 1
ner 1
ssi@@ 1
Po@@ 1
high@@ 1
typ@@ 1
6@@ 1
ill 1
der@@ 1
leng@@ 1
sly 1
is 1
ir 1
preced@@ 1
redien@@ 1
reviation 1
redi@@ 1
el@@ 1
reg@@ 1
fect@@ 1
neighb@@ 1
ics 1
av@@ 1
fl@@ 1
Com@@ 1
aspect@@ 1
ve@@ 1
administr@@ 1
iment 1
cl@@ 1
lev@@ 1
broadc@@ 1
fro@@ 1
gue 1
tit@@ 1
port 1
iti@@ 1
ional 1
alter@@ 1
Lat@@ 1
ot@@ 1
F 1
govern@@ 1
lea@@ 1
mi@@ 1
sandw@@ 1
ou@@ 1
il@@ 1
pe@@ 1
q 1
em@@ 1
ri@@ 1
ters 1
t-@@ 1
contr@@ 1
per@@ 1
fil@@ 1
ir@@ 1
VP[aspect=simple,tense=past,voice=passive,person=null,number@@ 1
VP[aspect=simple,tense=present,voice=active,person=@@ 1
ons 1
ap@@ 1
.@@ 1
K@@ 1
fir@@ 1
rd@@ 1
run@@ 1
ence 1
LCC@@ 1
ways 1
theast 1
ants 1
non-3rd,number=null] 1
ives 1
siz@@ 1
ive 1
surpri@@ 1
main@@ 1
I 1
carbohydr@@ 1
rder 1
ress 1
umber 1
4 1
19@@ 1
min@@ 1
ear@@ 1
roo@@ 1
lif@@ 1
und 1
=null] 1
bu@@ 1
ow 1
polit@@ 1
pre@@ 1
onau@@ 1
cu@@ 1
an 1
ay 1
sh@@ 1
rec@@ 1
leader@@ 1
tain 1
th 1
for@@ 1
fam@@ 1
sau@@ 1
ter 1
VP[aspect=progressive,@@ 1
astr@@ 1
ye@@ 1
spen@@ 1
compon@@ 1
qu@@ 1
org@@ 1
6 1
ions 1
ch@@ 1
memor@@ 1
ngu@@ 1
z@@ 1
ev@@ 1
ite 1
ym 1
ces 1
Tech@@ 1
erature 1
icip@@ 1
play@@ 1
est@@ 1
mes 1
Al@@ 1
capit@@ 1
ding 1
develo@@ 1
D@@ 1
dedic@@ 1
act@@ 1
3rd,number=null] 1
sea@@ 1
augur@@ 1
achi@@ 1
ke 1
ier 1
establish@@ 1
stin@@ 1
coun@@ 1
x 1
set 1
2@@ 1
ary 1
inv@@ 1
peror 1
RIDGE-@@ 1
ps 1
pon@@ 1
istoric 1
/@@ 1
L@@ 1
categor@@ 1
T 1
,@@ 1
architect@@ 1
ight 1
be@@ 1
tlook 1
inter@@ 1
back@@ 1
IS@@ 1
AGENT-@@ 1
sou@@ 1
signific@@ 1
ub 1
elev@@ 1
with@@ 1
cur@@ 1
eds 1
Corn@@ 1
R@@ 1
ce@@ 1
abo@@ 1
figh@@ 1
par@@ 1
ect@@ 1
ver@@ 1
plan@@ 1
cts 1
vo@@ 1
compan@@ 1
mo@@ 1
ace 1
f 1
gro@@ 1
desig@@ 1
exampl@@ 1
Air@@ 1
aff 1
ici@@ 1
VP[aspect=perfect,tense=present,voice=passive,person=@@ 1
3rd,number=singular] 1
fru@@ 1
ties 1
mis@@ 1
ality 1
ld 1
RIDGE-2 1
ically 1
if@@ 1
spe@@ 1
sion 1
off@@ 1
hes 1
ay@@ 1
U@@ 1
occu@@ 1
x@@ 1
lot 1
R 1
ude 1
rel@@ 1
ard 1
it@@ 1
var@@ 1
monu@@ 1
ure 1
urs 1
varie@@ 1
wi@@ 1
cha@@ 1
sit@@ 1
revi@@ 1
h 1
wor@@ 1
au@@ 1
consi@@ 1
tly 1
serv@@ 1
cy 1
ister 1
sity 1
spea@@ 1
vi@@ 1
BN 1
ma@@ 1
acti@@ 1
ra@@ 1
? 1
dem@@ 1
J@@ 1
politici@@ 1
